
// This is a TensorFlow Lite model file that has been converted into a C data
// array using the tensorflow.lite.util.convert_bytes_to_c_source() function.
// This form is useful for compiling into a binary for devices that don't have a
// file system.

#include "mnistMulti_chunk2.h"

// We need to keep the data array aligned on some architectures.
#ifdef __has_attribute
#define HAVE_ATTRIBUTE(x) __has_attribute(x)
#else
#define HAVE_ATTRIBUTE(x) 0
#endif
#if HAVE_ATTRIBUTE(aligned) || (defined(__GNUC__) && !defined(__clang__))
#define DATA_ALIGN_ATTRIBUTE __attribute__((aligned(4)))
#else
#define DATA_ALIGN_ATTRIBUTE
#endif

const unsigned char mnistMulti_chunk2[] DATA_ALIGN_ATTRIBUTE = {
    0x1c, 0x00, 0x00, 0x00, 0x54, 0x46, 0x4c, 0x33, 0x00, 0x00, 0x12, 0x00, 0x1c,
    0x00, 0x04, 0x00, 0x08, 0x00, 0x0c, 0x00, 0x10, 0x00, 0x14, 0x00, 0x00, 0x00,
    0x18, 0x00, 0x12, 0x00, 0x00, 0x00, 0x03, 0x00, 0x00, 0x00, 0x14, 0x00, 0x00,
    0x00, 0x28, 0x00, 0x00, 0x00, 0xc4, 0x00, 0x00, 0x00, 0x28, 0x00, 0x00, 0x00,
    0x6c, 0x00, 0x00, 0x00, 0x05, 0x00, 0x00, 0x00, 0x9c, 0x06, 0x00, 0x00, 0xd4,
    0x05, 0x00, 0x00, 0xc4, 0x02, 0x00, 0x00, 0x18, 0x02, 0x00, 0x00, 0x90, 0x01,
    0x00, 0x00, 0x01, 0x00, 0x00, 0x00, 0xc0, 0x00, 0x00, 0x00, 0x11, 0x00, 0x00,
    0x00, 0x5c, 0x2f, 0x00, 0x00, 0x58, 0x2f, 0x00, 0x00, 0x34, 0x2e, 0x00, 0x00,
    0x80, 0x2d, 0x00, 0x00, 0xd8, 0x2c, 0x00, 0x00, 0x54, 0x2c, 0x00, 0x00, 0xdc,
    0x1d, 0x00, 0x00, 0x5c, 0x16, 0x00, 0x00, 0xd8, 0x07, 0x00, 0x00, 0x38, 0x2f,
    0x00, 0x00, 0x34, 0x2f, 0x00, 0x00, 0x30, 0x2f, 0x00, 0x00, 0x2c, 0x2f, 0x00,
    0x00, 0x28, 0x2f, 0x00, 0x00, 0x24, 0x2f, 0x00, 0x00, 0x20, 0x2f, 0x00, 0x00,
    0x38, 0x00, 0x00, 0x00, 0x01, 0x00, 0x00, 0x00, 0x0c, 0x00, 0x00, 0x00, 0x08,
    0x00, 0x0c, 0x00, 0x04, 0x00, 0x08, 0x00, 0x08, 0x00, 0x00, 0x00, 0x08, 0x00,
    0x00, 0x00, 0x10, 0x00, 0x00, 0x00, 0x13, 0x00, 0x00, 0x00, 0x6d, 0x69, 0x6e,
    0x5f, 0x72, 0x75, 0x6e, 0x74, 0x69, 0x6d, 0x65, 0x5f, 0x76, 0x65, 0x72, 0x73,
    0x69, 0x6f, 0x6e, 0x00, 0x42, 0xd2, 0xff, 0xff, 0x04, 0x00, 0x00, 0x00, 0x10,
    0x00, 0x00, 0x00, 0x31, 0x2e, 0x35, 0x2e, 0x30, 0x00, 0x00, 0x00, 0x00, 0x00,
    0x00, 0x00, 0x00, 0x00, 0x00, 0x00, 0x0f, 0x00, 0x00, 0x00, 0x4d, 0x4c, 0x49,
    0x52, 0x20, 0x43, 0x6f, 0x6e, 0x76, 0x65, 0x72, 0x74, 0x65, 0x64, 0x2e, 0x00,
    0x00, 0x00, 0x0e, 0x00, 0x18, 0x00, 0x04, 0x00, 0x08, 0x00, 0x0c, 0x00, 0x10,
    0x00, 0x14, 0x00, 0x0e, 0x00, 0x00, 0x00, 0x14, 0x00, 0x00, 0x00, 0x50, 0x00,
    0x00, 0x00, 0x54, 0x00, 0x00, 0x00, 0x5c, 0x00, 0x00, 0x00, 0x78, 0x00, 0x00,
    0x00, 0x0f, 0x00, 0x00, 0x00, 0x34, 0x2e, 0x00, 0x00, 0xa8, 0x2d, 0x00, 0x00,
    0xe4, 0x2c, 0x00, 0x00, 0x3c, 0x2c, 0x00, 0x00, 0xa8, 0x2b, 0x00, 0x00, 0x28,
    0x2b, 0x00, 0x00, 0xa0, 0x1c, 0x00, 0x00, 0x24, 0x15, 0x00, 0x00, 0x94, 0x05,
    0x00, 0x00, 0xcc, 0x04, 0x00, 0x00, 0x38, 0x03, 0x00, 0x00, 0x74, 0x02, 0x00,
    0x00, 0xb4, 0x01, 0x00, 0x00, 0x08, 0x01, 0x00, 0x00, 0x80, 0x00, 0x00, 0x00,
    0x01, 0x00, 0x00, 0x00, 0x00, 0x00, 0x00, 0x00, 0x02, 0x00, 0x00, 0x00, 0x09,
    0x00, 0x00, 0x00, 0x0e, 0x00, 0x00, 0x00, 0x07, 0x00, 0x00, 0x00, 0x00, 0x05,
    0x00, 0x00, 0x3c, 0x04, 0x00, 0x00, 0xc8, 0x02, 0x00, 0x00, 0x00, 0x02, 0x00,
    0x00, 0x50, 0x01, 0x00, 0x00, 0x94, 0x00, 0x00, 0x00, 0x10, 0x00, 0x00, 0x00,
    0x04, 0x00, 0x00, 0x00, 0x6d, 0x61, 0x69, 0x6e, 0x00, 0x00, 0x00, 0x00, 0x2a,
    0xfe, 0xff, 0xff, 0x00, 0x00, 0x00, 0x09, 0x04, 0x00, 0x00, 0x00, 0x1c, 0x00,
    0x00, 0x00, 0x10, 0x00, 0x00, 0x00, 0x04, 0x00, 0x00, 0x00, 0x32, 0xd3, 0xff,
    0xff, 0x00, 0x00, 0x80, 0x3f, 0x01, 0x00, 0x00, 0x00, 0x0e, 0x00, 0x00, 0x00,
    0x01, 0x00, 0x00, 0x00, 0x0d, 0x00, 0x00, 0x00, 0x0e, 0xfb, 0xff, 0xff, 0x00,
    0x00, 0x00, 0x19, 0x01, 0x00, 0x00, 0x00, 0x98, 0xd2, 0xff, 0xff, 0x14, 0x00,
    0x00, 0x00, 0x0f, 0x00, 0x00, 0x00, 0x24, 0x00, 0x00, 0x00, 0x30, 0x00, 0x00,
    0x00, 0x10, 0x00, 0x00, 0x00, 0x02, 0x00, 0x00, 0x00, 0x01, 0x00, 0x00, 0x00,
    0x0a, 0x00, 0x00, 0x00, 0x02, 0x00, 0x00, 0x00, 0xff, 0xff, 0xff, 0xff, 0x0a,
    0x00, 0x00, 0x00, 0x0a, 0x00, 0x00, 0x00, 0x49, 0x64, 0x65, 0x6e, 0x74, 0x69,
    0x74, 0x79, 0x5f, 0x31, 0x00, 0x00, 0x74, 0xd2, 0xff, 0xff, 0xaa, 0xfe, 0xff,
    0xff, 0x00, 0x00, 0x00, 0x08, 0x03, 0x00, 0x00, 0x00, 0x18, 0x00, 0x00, 0x00,
    0x0c, 0x00, 0x00, 0x00, 0x04, 0x00, 0x00, 0x00, 0x90, 0xd2, 0xff, 0xff, 0x01,
    0x00, 0x00, 0x00, 0x0d, 0x00, 0x00, 0x00, 0x03, 0x00, 0x00, 0x00, 0x0c, 0x00,
    0x00, 0x00, 0x05, 0x00, 0x00, 0x00, 0x03, 0x00, 0x00, 0x00, 0x92, 0xfb, 0xff,
    0xff, 0x00, 0x00, 0x00, 0x09, 0x01, 0x00, 0x00, 0x00, 0x1c, 0xd3, 0xff, 0xff,
    0x14, 0x00, 0x00, 0x00, 0x0e, 0x00, 0x00, 0x00, 0x24, 0x00, 0x00, 0x00, 0x58,
    0x00, 0x00, 0x00, 0x10, 0x00, 0x00, 0x00, 0x02, 0x00, 0x00, 0x00, 0x01, 0x00,
    0x00, 0x00, 0x0a, 0x00, 0x00, 0x00, 0x02, 0x00, 0x00, 0x00, 0xff, 0xff, 0xff,
    0xff, 0x0a, 0x00, 0x00, 0x00, 0x30, 0x00, 0x00, 0x00, 0x66, 0x75, 0x6e, 0x63,
    0x74, 0x69, 0x6f, 0x6e, 0x61, 0x6c, 0x5f, 0x32, 0x31, 0x2f, 0x66, 0x75, 0x6e,
    0x63, 0x74, 0x69, 0x6f, 0x6e, 0x61, 0x6c, 0x5f, 0x39, 0x2f, 0x65, 0x78, 0x69,
    0x74, 0x32, 0x2f, 0x64, 0x65, 0x6e, 0x73, 0x65, 0x5f, 0x31, 0x2f, 0x42, 0x69,
    0x61, 0x73, 0x41, 0x64, 0x64, 0x00, 0x00, 0x00, 0x00, 0x4c, 0xd4, 0xff, 0xff,
    0x00, 0x00, 0x0a, 0x00, 0x10, 0x00, 0x04, 0x00, 0x08, 0x00, 0x0c, 0x00, 0x0a,
    0x00, 0x00, 0x00, 0x02, 0x00, 0x00, 0x00, 0x10, 0x00, 0x00, 0x00, 0x04, 0x00,
    0x00, 0x00, 0x01, 0x00, 0x00, 0x00, 0x0c, 0x00, 0x00, 0x00, 0x02, 0x00, 0x00,
    0x00, 0x0b, 0x00, 0x00, 0x00, 0x04, 0x00, 0x00, 0x00, 0x3a, 0xfc, 0xff, 0xff,
    0x00, 0x00, 0x00, 0x16, 0x01, 0x00, 0x00, 0x00, 0xc4, 0xd3, 0xff, 0xff, 0x14,
    0x00, 0x00, 0x00, 0x0d, 0x00, 0x00, 0x00, 0x24, 0x00, 0x00, 0x00, 0x58, 0x00,
    0x00, 0x00, 0x10, 0x00, 0x00, 0x00, 0x02, 0x00, 0x00, 0x00, 0x01, 0x00, 0x00,
    0x00, 0x5a, 0x00, 0x00, 0x00, 0x02, 0x00, 0x00, 0x00, 0xff, 0xff, 0xff, 0xff,
    0x5a, 0x00, 0x00, 0x00, 0x32, 0x00, 0x00, 0x00, 0x66, 0x75, 0x6e, 0x63, 0x74,
    0x69, 0x6f, 0x6e, 0x61, 0x6c, 0x5f, 0x32, 0x31, 0x2f, 0x66, 0x75, 0x6e, 0x63,
    0x74, 0x69, 0x6f, 0x6e, 0x61, 0x6c, 0x5f, 0x39, 0x2f, 0x65, 0x78, 0x69, 0x74,
    0x32, 0x2f, 0x66, 0x6c, 0x61, 0x74, 0x74, 0x65, 0x6e, 0x5f, 0x31, 0x2f, 0x52,
    0x65, 0x73, 0x68, 0x61, 0x70, 0x65, 0x00, 0x00, 0xf4, 0xd4, 0xff, 0xff, 0x00,
    0x00, 0x0e, 0x00, 0x18, 0x00, 0x08, 0x00, 0x0c, 0x00, 0x10, 0x00, 0x07, 0x00,
    0x14, 0x00, 0x0e, 0x00, 0x00, 0x00, 0x00, 0x00, 0x00, 0x05, 0x01, 0x00, 0x00,
    0x00, 0x2c, 0x00, 0x00, 0x00, 0x20, 0x00, 0x00, 0x00, 0x04, 0x00, 0x00, 0x00,
    0xca, 0xfd, 0xff, 0xff, 0x02, 0x00, 0x00, 0x00, 0x02, 0x00, 0x00, 0x00, 0x02,
    0x00, 0x00, 0x00, 0x02, 0x00, 0x00, 0x00, 0x00, 0x00, 0x00, 0x01, 0x01, 0x00,
    0x00, 0x00, 0x0b, 0x00, 0x00, 0x00, 0x01, 0x00, 0x00, 0x00, 0x0a, 0x00, 0x00,
    0x00, 0x80, 0xd4, 0xff, 0xff, 0x14, 0x00, 0x00, 0x00, 0x0c, 0x00, 0x00, 0x00,
    0x34, 0x00, 0x00, 0x00, 0x70, 0x00, 0x00, 0x00, 0x18, 0x00, 0x00, 0x00, 0x04,
    0x00, 0x00, 0x00, 0x01, 0x00, 0x00, 0x00, 0x03, 0x00, 0x00, 0x00, 0x03, 0x00,
    0x00, 0x00, 0x0a, 0x00, 0x00, 0x00, 0x04, 0x00, 0x00, 0x00, 0xff, 0xff, 0xff,
    0xff, 0x03, 0x00, 0x00, 0x00, 0x03, 0x00, 0x00, 0x00, 0x0a, 0x00, 0x00, 0x00,
    0x38, 0x00, 0x00, 0x00, 0x66, 0x75, 0x6e, 0x63, 0x74, 0x69, 0x6f, 0x6e, 0x61,
    0x6c, 0x5f, 0x32, 0x31, 0x2f, 0x66, 0x75, 0x6e, 0x63, 0x74, 0x69, 0x6f, 0x6e,
    0x61, 0x6c, 0x5f, 0x39, 0x2f, 0x65, 0x78, 0x69, 0x74, 0x32, 0x2f, 0x6d, 0x61,
    0x78, 0x5f, 0x70, 0x6f, 0x6f, 0x6c, 0x69, 0x6e, 0x67, 0x32, 0x64, 0x5f, 0x33,
    0x2f, 0x4d, 0x61, 0x78, 0x50, 0x6f, 0x6f, 0x6c, 0x00, 0x00, 0x00, 0x00, 0x9c,
    0xd4, 0xff, 0xff, 0xde, 0xfd, 0xff, 0xff, 0x00, 0x00, 0x00, 0x01, 0x24, 0x00,
    0x00, 0x00, 0x18, 0x00, 0x00, 0x00, 0x04, 0x00, 0x00, 0x00, 0xd0, 0xfd, 0xff,
    0xff, 0x01, 0x00, 0x00, 0x00, 0x01, 0x00, 0x00, 0x00, 0x00, 0x00, 0x00, 0x01,
    0x01, 0x00, 0x00, 0x00, 0x0a, 0x00, 0x00, 0x00, 0x03, 0x00, 0x00, 0x00, 0x09,
    0x00, 0x00, 0x00, 0x07, 0x00, 0x00, 0x00, 0x02, 0x00, 0x00, 0x00, 0x40, 0xd5,
    0xff, 0xff, 0x14, 0x00, 0x00, 0x00, 0x0b, 0x00, 0x00, 0x00, 0x34, 0x00, 0x00,
    0x00, 0x10, 0x01, 0x00, 0x00, 0x18, 0x00, 0x00, 0x00, 0x04, 0x00, 0x00, 0x00,
    0x01, 0x00, 0x00, 0x00, 0x07, 0x00, 0x00, 0x00, 0x07, 0x00, 0x00, 0x00, 0x0a,
    0x00, 0x00, 0x00, 0x04, 0x00, 0x00, 0x00, 0xff, 0xff, 0xff, 0xff, 0x07, 0x00,
    0x00, 0x00, 0x07, 0x00, 0x00, 0x00, 0x0a, 0x00, 0x00, 0x00, 0xdb, 0x00, 0x00,
    0x00, 0x66, 0x75, 0x6e, 0x63, 0x74, 0x69, 0x6f, 0x6e, 0x61, 0x6c, 0x5f, 0x32,
    0x31, 0x2f, 0x66, 0x75, 0x6e, 0x63, 0x74, 0x69, 0x6f, 0x6e, 0x61, 0x6c, 0x5f,
    0x39, 0x2f, 0x65, 0x78, 0x69, 0x74, 0x32, 0x2f, 0x63, 0x6f, 0x6e, 0x76, 0x32,
    0x64, 0x5f, 0x33, 0x2f, 0x52, 0x65, 0x6c, 0x75, 0x3b, 0x66, 0x75, 0x6e, 0x63,
    0x74, 0x69, 0x6f, 0x6e, 0x61, 0x6c, 0x5f, 0x32, 0x31, 0x2f, 0x66, 0x75, 0x6e,
    0x63, 0x74, 0x69, 0x6f, 0x6e, 0x61, 0x6c, 0x5f, 0x39, 0x2f, 0x65, 0x78, 0x69,
    0x74, 0x32, 0x2f, 0x63, 0x6f, 0x6e, 0x76, 0x32, 0x64, 0x5f, 0x33, 0x2f, 0x42,
    0x69, 0x61, 0x73, 0x41, 0x64, 0x64, 0x3b, 0x66, 0x75, 0x6e, 0x63, 0x74, 0x69,
    0x6f, 0x6e, 0x61, 0x6c, 0x5f, 0x32, 0x31, 0x2f, 0x66, 0x75, 0x6e, 0x63, 0x74,
    0x69, 0x6f, 0x6e, 0x61, 0x6c, 0x5f, 0x39, 0x2f, 0x65, 0x78, 0x69, 0x74, 0x32,
    0x2f, 0x63, 0x6f, 0x6e, 0x76, 0x32, 0x64, 0x5f, 0x33, 0x2f, 0x43, 0x6f, 0x6e,
    0x76, 0x32, 0x44, 0x3b, 0x66, 0x75, 0x6e, 0x63, 0x74, 0x69, 0x6f, 0x6e, 0x61,
    0x6c, 0x5f, 0x32, 0x31, 0x2f, 0x66, 0x75, 0x6e, 0x63, 0x74, 0x69, 0x6f, 0x6e,
    0x61, 0x6c, 0x5f, 0x39, 0x2f, 0x65, 0x78, 0x69, 0x74, 0x32, 0x2f, 0x63, 0x6f,
    0x6e, 0x76, 0x32, 0x64, 0x5f, 0x33, 0x2f, 0x42, 0x69, 0x61, 0x73, 0x41, 0x64,
    0x64, 0x2f, 0x52, 0x65, 0x61, 0x64, 0x56, 0x61, 0x72, 0x69, 0x61, 0x62, 0x6c,
    0x65, 0x4f, 0x70, 0x2f, 0x72, 0x65, 0x73, 0x6f, 0x75, 0x72, 0x63, 0x65, 0x00,
    0x28, 0xd7, 0xff, 0xff, 0x00, 0x00, 0x0e, 0x00, 0x1a, 0x00, 0x08, 0x00, 0x0c,
    0x00, 0x10, 0x00, 0x07, 0x00, 0x14, 0x00, 0x0e, 0x00, 0x00, 0x00, 0x00, 0x00,
    0x00, 0x05, 0x01, 0x00, 0x00, 0x00, 0x3c, 0x00, 0x00, 0x00, 0x30, 0x00, 0x00,
    0x00, 0x14, 0x00, 0x00, 0x00, 0x00, 0x00, 0x0e, 0x00, 0x18, 0x00, 0x17, 0x00,
    0x10, 0x00, 0x0c, 0x00, 0x08, 0x00, 0x04, 0x00, 0x0e, 0x00, 0x00, 0x00, 0x02,
    0x00, 0x00, 0x00, 0x02, 0x00, 0x00, 0x00, 0x02, 0x00, 0x00, 0x00, 0x02, 0x00,
    0x00, 0x00, 0x00, 0x00, 0x00, 0x01, 0x01, 0x00, 0x00, 0x00, 0x09, 0x00, 0x00,
    0x00, 0x01, 0x00, 0x00, 0x00, 0x08, 0x00, 0x00, 0x00, 0x46, 0xff, 0xff, 0xff,
    0x00, 0x00, 0x00, 0x11, 0x01, 0x00, 0x00, 0x00, 0xd0, 0xd6, 0xff, 0xff, 0x14,
    0x00, 0x00, 0x00, 0x0a, 0x00, 0x00, 0x00, 0x34, 0x00, 0x00, 0x00, 0x40, 0x00,
    0x00, 0x00, 0x18, 0x00, 0x00, 0x00, 0x04, 0x00, 0x00, 0x00, 0x01, 0x00, 0x00,
    0x00, 0x07, 0x00, 0x00, 0x00, 0x07, 0x00, 0x00, 0x00, 0x0a, 0x00, 0x00, 0x00,
    0x04, 0x00, 0x00, 0x00, 0xff, 0xff, 0xff, 0xff, 0x07, 0x00, 0x00, 0x00, 0x07,
    0x00, 0x00, 0x00, 0x0a, 0x00, 0x00, 0x00, 0x08, 0x00, 0x00, 0x00, 0x49, 0x64,
    0x65, 0x6e, 0x74, 0x69, 0x74, 0x79, 0x00, 0x00, 0x00, 0x00, 0xe8, 0xd7, 0xff,
    0xff, 0x00, 0x00, 0x0e, 0x00, 0x14, 0x00, 0x00, 0x00, 0x08, 0x00, 0x0c, 0x00,
    0x07, 0x00, 0x10, 0x00, 0x0e, 0x00, 0x00, 0x00, 0x00, 0x00, 0x00, 0x01, 0x30,
    0x00, 0x00, 0x00, 0x24, 0x00, 0x00, 0x00, 0x10, 0x00, 0x00, 0x00, 0x0c, 0x00,
    0x10, 0x00, 0x00, 0x00, 0x04, 0x00, 0x08, 0x00, 0x0f, 0x00, 0x0c, 0x00, 0x00,
    0x00, 0x01, 0x00, 0x00, 0x00, 0x01, 0x00, 0x00, 0x00, 0x00, 0x00, 0x00, 0x01,
    0x01, 0x00, 0x00, 0x00, 0x08, 0x00, 0x00, 0x00, 0x03, 0x00, 0x00, 0x00, 0x00,
    0x00, 0x00, 0x00, 0x06, 0x00, 0x00, 0x00, 0x01, 0x00, 0x00, 0x00, 0x00, 0x00,
    0x0a, 0x00, 0x0c, 0x00, 0x07, 0x00, 0x00, 0x00, 0x08, 0x00, 0x0a, 0x00, 0x00,
    0x00, 0x00, 0x00, 0x00, 0x03, 0x01, 0x00, 0x00, 0x00, 0x94, 0xd7, 0xff, 0xff,
    0x14, 0x00, 0x00, 0x00, 0x09, 0x00, 0x00, 0x00, 0x34, 0x00, 0x00, 0x00, 0x5c,
    0x01, 0x00, 0x00, 0x18, 0x00, 0x00, 0x00, 0x04, 0x00, 0x00, 0x00, 0x01, 0x00,
    0x00, 0x00, 0x0e, 0x00, 0x00, 0x00, 0x0e, 0x00, 0x00, 0x00, 0x0a, 0x00, 0x00,
    0x00, 0x04, 0x00, 0x00, 0x00, 0xff, 0xff, 0xff, 0xff, 0x0e, 0x00, 0x00, 0x00,
    0x0e, 0x00, 0x00, 0x00, 0x0a, 0x00, 0x00, 0x00, 0x24, 0x01, 0x00, 0x00, 0x66,
    0x75, 0x6e, 0x63, 0x74, 0x69, 0x6f, 0x6e, 0x61, 0x6c, 0x5f, 0x32, 0x31, 0x2f,
    0x66, 0x75, 0x6e, 0x63, 0x74, 0x69, 0x6f, 0x6e, 0x61, 0x6c, 0x5f, 0x37, 0x2f,
    0x62, 0x61, 0x73, 0x65, 0x5f, 0x6d, 0x6f, 0x64, 0x65, 0x6c, 0x32, 0x2f, 0x63,
    0x6f, 0x6e, 0x76, 0x32, 0x64, 0x5f, 0x32, 0x2f, 0x52, 0x65, 0x6c, 0x75, 0x3b,
    0x66, 0x75, 0x6e, 0x63, 0x74, 0x69, 0x6f, 0x6e, 0x61, 0x6c, 0x5f, 0x32, 0x31,
    0x2f, 0x66, 0x75, 0x6e, 0x63, 0x74, 0x69, 0x6f, 0x6e, 0x61, 0x6c, 0x5f, 0x37,
    0x2f, 0x62, 0x61, 0x73, 0x65, 0x5f, 0x6d, 0x6f, 0x64, 0x65, 0x6c, 0x32, 0x2f,
    0x63, 0x6f, 0x6e, 0x76, 0x32, 0x64, 0x5f, 0x32, 0x2f, 0x42, 0x69, 0x61, 0x73,
    0x41, 0x64, 0x64, 0x3b, 0x66, 0x75, 0x6e, 0x63, 0x74, 0x69, 0x6f, 0x6e, 0x61,
    0x6c, 0x5f, 0x32, 0x31, 0x2f, 0x66, 0x75, 0x6e, 0x63, 0x74, 0x69, 0x6f, 0x6e,
    0x61, 0x6c, 0x5f, 0x39, 0x2f, 0x65, 0x78, 0x69, 0x74, 0x32, 0x2f, 0x63, 0x6f,
    0x6e, 0x76, 0x32, 0x64, 0x5f, 0x33, 0x2f, 0x43, 0x6f, 0x6e, 0x76, 0x32, 0x44,
    0x3b, 0x66, 0x75, 0x6e, 0x63, 0x74, 0x69, 0x6f, 0x6e, 0x61, 0x6c, 0x5f, 0x32,
    0x31, 0x2f, 0x66, 0x75, 0x6e, 0x63, 0x74, 0x69, 0x6f, 0x6e, 0x61, 0x6c, 0x5f,
    0x37, 0x2f, 0x62, 0x61, 0x73, 0x65, 0x5f, 0x6d, 0x6f, 0x64, 0x65, 0x6c, 0x32,
    0x2f, 0x63, 0x6f, 0x6e, 0x76, 0x32, 0x64, 0x5f, 0x32, 0x2f, 0x43, 0x6f, 0x6e,
    0x76, 0x32, 0x44, 0x3b, 0x66, 0x75, 0x6e, 0x63, 0x74, 0x69, 0x6f, 0x6e, 0x61,
    0x6c, 0x5f, 0x32, 0x31, 0x2f, 0x66, 0x75, 0x6e, 0x63, 0x74, 0x69, 0x6f, 0x6e,
    0x61, 0x6c, 0x5f, 0x37, 0x2f, 0x62, 0x61, 0x73, 0x65, 0x5f, 0x6d, 0x6f, 0x64,
    0x65, 0x6c, 0x32, 0x2f, 0x63, 0x6f, 0x6e, 0x76, 0x32, 0x64, 0x5f, 0x32, 0x2f,
    0x42, 0x69, 0x61, 0x73, 0x41, 0x64, 0x64, 0x2f, 0x52, 0x65, 0x61, 0x64, 0x56,
    0x61, 0x72, 0x69, 0x61, 0x62, 0x6c, 0x65, 0x4f, 0x70, 0x2f, 0x72, 0x65, 0x73,
    0x6f, 0x75, 0x72, 0x63, 0x65, 0x00, 0x00, 0x00, 0x00, 0x9c, 0xd8, 0xff, 0xff,
    0xc2, 0xd9, 0xff, 0xff, 0x04, 0x00, 0x00, 0x00, 0x10, 0x0e, 0x00, 0x00, 0x75,
    0xb8, 0xbf, 0x3e, 0xc4, 0x73, 0xf8, 0xbc, 0xdc, 0x30, 0xaa, 0xbc, 0xc8, 0xc5,
    0xe2, 0x3e, 0x4a, 0xef, 0x4d, 0xbe, 0x08, 0xb2, 0x57, 0x3d, 0xbf, 0x35, 0x0e,
    0x3e, 0xb8, 0x7c, 0x00, 0x3e, 0x18, 0x1a, 0x12, 0xbe, 0x68, 0xa5, 0x35, 0x3e,
    0x22, 0xda, 0x10, 0x3e, 0x38, 0xbd, 0xf4, 0xbd, 0xd3, 0xbd, 0x93, 0xbb, 0x4e,
    0xff, 0xf9, 0x3d, 0x06, 0x95, 0x13, 0x3e, 0x54, 0x37, 0x1a, 0x3e, 0x6b, 0xf9,
    0xa6, 0x3d, 0xcf, 0x20, 0x1f, 0x3e, 0xae, 0x01, 0xae, 0x3d, 0xda, 0x18, 0x36,
    0xb9, 0xec, 0xac, 0x3d, 0x3d, 0xf0, 0xa9, 0x03, 0x3e, 0xc6, 0x02, 0x4a, 0x3e,
    0xf0, 0xdc, 0xa6, 0x3e, 0x23, 0x28, 0x01, 0xbe, 0xc8, 0xf9, 0x85, 0xbe, 0x1b,
    0x75, 0xce, 0x3c, 0x93, 0x1f, 0x80, 0x3d, 0x5d, 0x52, 0xf5, 0x3d, 0xb6, 0x49,
    0xe3, 0x3d, 0xfc, 0x5b, 0x25, 0xbd, 0xc3, 0x6a, 0xaa, 0x3a, 0xa3, 0x73, 0xa6,
    0xbc, 0xe8, 0xe0, 0x07, 0x3b, 0xc7, 0xff, 0x31, 0x3e, 0x22, 0x14, 0x91, 0xbd,
    0x31, 0xc3, 0x56, 0xbe, 0x84, 0xcd, 0x91, 0xbd, 0xad, 0x93, 0x99, 0xbe, 0xfe,
    0x7f, 0xd6, 0xba, 0x1c, 0x67, 0x07, 0xbd, 0x65, 0xe7, 0xb5, 0xbd, 0xf2, 0xf8,
    0x1e, 0xbc, 0xb2, 0x1f, 0x32, 0xbe, 0xd8, 0x0a, 0x7d, 0x3e, 0x34, 0x29, 0x3d,
    0x3e, 0x93, 0x6c, 0x47, 0x3e, 0xb3, 0xa5, 0xbb, 0xbc, 0xfe, 0xf6, 0x35, 0xbd,
    0xcb, 0x32, 0xda, 0xbd, 0x3e, 0x32, 0x7d, 0x3e, 0x03, 0x28, 0x8b, 0x3c, 0x47,
    0xf5, 0x01, 0xbe, 0x3f, 0x00, 0x3d, 0x3e, 0xc1, 0x18, 0x95, 0xbd, 0xe2, 0x6b,
    0x4b, 0xbe, 0x32, 0xf6, 0x88, 0xbd, 0x84, 0x6e, 0x77, 0x3e, 0xa1, 0xc3, 0x00,
    0x3e, 0x1a, 0x8c, 0x7e, 0x3d, 0x10, 0xca, 0x20, 0xbe, 0xd3, 0x01, 0xb7, 0x3e,
    0x83, 0x5f, 0xf7, 0x3e, 0x29, 0x03, 0x32, 0xbe, 0xb2, 0xfe, 0xe4, 0x3e, 0x88,
    0xf8, 0x8a, 0xbe, 0x76, 0xb7, 0x24, 0xbe, 0xf1, 0x11, 0x8d, 0xbd, 0xf6, 0x60,
    0x67, 0x3c, 0x05, 0x65, 0xcf, 0x3d, 0x63, 0x6f, 0x4c, 0x3c, 0xaa, 0xb7, 0xa8,
    0x3e, 0xb2, 0x6d, 0x2a, 0xbe, 0xe6, 0xbc, 0x47, 0xbe, 0xed, 0x77, 0xa6, 0x3d,
    0x62, 0xe7, 0x36, 0x3d, 0x93, 0x0a, 0x4c, 0xbd, 0x3b, 0x48, 0x3c, 0x3e, 0x6c,
    0x9e, 0x87, 0x3e, 0xc7, 0x04, 0x02, 0x3e, 0x94, 0xe9, 0xb7, 0xbd, 0x25, 0x29,
    0x00, 0x3e, 0x83, 0xd0, 0x48, 0x3c, 0x15, 0xaf, 0x46, 0x3d, 0x9b, 0xa3, 0xe2,
    0xbd, 0xc5, 0xe6, 0x16, 0x3e, 0x89, 0x08, 0x6c, 0x3d, 0xef, 0x85, 0x1e, 0xbd,
    0xeb, 0x8a, 0x8b, 0x3d, 0xb1, 0x08, 0xc9, 0xbd, 0xaa, 0xc1, 0x6e, 0xbd, 0x4a,
    0x96, 0x0d, 0xbd, 0xc7, 0x0e, 0x2e, 0x3d, 0xdc, 0xf5, 0x07, 0x3d, 0x36, 0xb0,
    0x2f, 0xbe, 0x9e, 0xda, 0xa5, 0x3d, 0xed, 0x44, 0x7f, 0xbd, 0x5b, 0xca, 0x8f,
    0xbd, 0xf6, 0x0a, 0x89, 0x3e, 0xc5, 0xeb, 0xcc, 0x3d, 0xe0, 0x9e, 0x50, 0xbc,
    0xc8, 0xa8, 0x4f, 0xbd, 0x3a, 0x8f, 0x97, 0x3c, 0x40, 0x65, 0x09, 0xbe, 0x98,
    0x4c, 0xf6, 0xbd, 0x9e, 0x00, 0x09, 0x3e, 0x57, 0x6c, 0xcf, 0xbd, 0x01, 0x04,
    0x2d, 0x3e, 0x90, 0x0d, 0x0d, 0x3e, 0x94, 0x22, 0x40, 0xbd, 0x64, 0xab, 0xb0,
    0xbd, 0xd2, 0x75, 0x28, 0x3e, 0xeb, 0xb3, 0x80, 0x3e, 0x7c, 0x87, 0x0f, 0xbe,
    0x8e, 0x21, 0x0c, 0xbd, 0xdd, 0x2b, 0x49, 0xbe, 0x24, 0x9b, 0x6d, 0xbd, 0xec,
    0x59, 0x9d, 0x3d, 0x26, 0xa3, 0xc1, 0x3e, 0x1a, 0x46, 0xa2, 0x3e, 0x04, 0x72,
    0xaf, 0x3c, 0x3c, 0xa5, 0x90, 0x3b, 0xcc, 0xf7, 0xb5, 0x3b, 0x90, 0x29, 0x1f,
    0x3e, 0x32, 0x8b, 0xa8, 0xbe, 0xf2, 0x33, 0xb4, 0x3d, 0x27, 0x8d, 0x7b, 0x3d,
    0x99, 0x53, 0x10, 0x3c, 0x08, 0xdd, 0x30, 0xbe, 0x96, 0xed, 0xa6, 0x3d, 0xbf,
    0x23, 0xd2, 0x3d, 0x3c, 0x6b, 0x25, 0xbd, 0xda, 0xf5, 0x2a, 0x3e, 0xcb, 0xf0,
    0xfc, 0xbd, 0x6b, 0x53, 0x22, 0xbf, 0x04, 0xd2, 0x0f, 0xbe, 0x53, 0xf0, 0x0b,
    0xbb, 0xa3, 0x29, 0x2f, 0x3e, 0x79, 0x74, 0x5e, 0xbd, 0xe5, 0x81, 0x29, 0x3e,
    0x0c, 0xf3, 0x9a, 0x3c, 0x3c, 0x14, 0x21, 0x3e, 0x56, 0xa5, 0x14, 0xbe, 0xa6,
    0xb7, 0xb3, 0x3d, 0x2a, 0x58, 0x63, 0xbe, 0x18, 0xcd, 0xdc, 0x3c, 0x74, 0x5c,
    0xc8, 0x3d, 0x0d, 0x44, 0x30, 0x3e, 0x75, 0xf2, 0x35, 0x3c, 0x53, 0xd0, 0x9c,
    0x3e, 0xd9, 0xfa, 0x49, 0xbe, 0x15, 0x3a, 0x80, 0x3d, 0xaf, 0x20, 0x85, 0xbc,
    0x0b, 0x8f, 0xa8, 0x3d, 0xf7, 0x4f, 0x92, 0xbe, 0x3c, 0x8b, 0x5f, 0x3d, 0x8c,
    0xe6, 0xd0, 0xbd, 0x67, 0xdb, 0x82, 0xbb, 0xfa, 0x85, 0x98, 0xbd, 0xb4, 0x92,
    0xcc, 0x3d, 0x54, 0xdd, 0xc2, 0x3d, 0xe5, 0x7b, 0xe6, 0xbc, 0x65, 0xd1, 0x49,
    0x3e, 0x3d, 0xea, 0xe9, 0xbc, 0xa5, 0x56, 0x17, 0xbe, 0x41, 0x71, 0x37, 0xbe,
    0xdd, 0x0c, 0xf5, 0x3d, 0xbb, 0xa5, 0xec, 0xbd, 0x0d, 0xbd, 0xc7, 0xbe, 0xe4,
    0xa8, 0x94, 0xbd, 0x64, 0xec, 0xcb, 0xbc, 0xf4, 0xbf, 0x45, 0xbd, 0x36, 0xdb,
    0x70, 0x3e, 0x2f, 0xe8, 0xa3, 0xbc, 0xad, 0x5c, 0xd6, 0xbd, 0x7c, 0xd1, 0x9c,
    0xbd, 0x6a, 0x17, 0xa1, 0x3d, 0x58, 0x36, 0x2e, 0xbb, 0xd7, 0xb2, 0x93, 0x3c,
    0xb8, 0x10, 0x20, 0x3e, 0xe2, 0xfe, 0x59, 0x3e, 0xe1, 0x8b, 0xf1, 0x3d, 0x8a,
    0xb5, 0x87, 0xbd, 0x0b, 0x6e, 0xa6, 0x3d, 0x27, 0x78, 0xc9, 0x3e, 0xf3, 0xc3,
    0xa5, 0x3e, 0x9c, 0xd2, 0xe8, 0x3a, 0x19, 0xe0, 0x33, 0xbd, 0x00, 0xbb, 0x8b,
    0x3d, 0x0b, 0xf1, 0xd8, 0xbd, 0xb3, 0x40, 0x30, 0xbd, 0x3f, 0x13, 0x4a, 0xbd,
    0x44, 0xab, 0x38, 0xbd, 0x8f, 0xe9, 0x2d, 0xbe, 0x7c, 0x3c, 0xc3, 0x3d, 0x9d,
    0x3e, 0x28, 0x3e, 0x34, 0x5d, 0x1c, 0xbe, 0x4f, 0x89, 0x38, 0x3e, 0x27, 0xd5,
    0x0f, 0x3f, 0x6d, 0xb9, 0x82, 0xbe, 0x39, 0xab, 0x85, 0xbe, 0xb7, 0x3c, 0x8e,
    0xbe, 0x32, 0xd1, 0xd8, 0xbd, 0x2d, 0x52, 0xaa, 0xbe, 0xab, 0x76, 0xdf, 0xbd,
    0x3f, 0x8a, 0x93, 0x3e, 0x89, 0x6f, 0xb2, 0x3d, 0xd8, 0x06, 0x56, 0xbe, 0x1f,
    0x24, 0xae, 0x3e, 0x00, 0x22, 0xf2, 0xbc, 0xe5, 0xdc, 0x6a, 0xbe, 0xc9, 0x7d,
    0xe3, 0xbd, 0xeb, 0xf0, 0x91, 0xbe, 0xe9, 0xe1, 0xa0, 0x3a, 0x33, 0x83, 0x5f,
    0x3c, 0x80, 0xda, 0x86, 0x3e, 0xa5, 0x54, 0x21, 0xbe, 0xd7, 0x96, 0x52, 0x3d,
    0x07, 0xc1, 0xe9, 0xbd, 0x6a, 0x23, 0xd3, 0xbc, 0x6c, 0x08, 0x8e, 0x3c, 0xe2,
    0x07, 0x1f, 0xbe, 0xe4, 0xaf, 0x0a, 0x3d, 0x47, 0xb5, 0x0d, 0xbe, 0xdb, 0xf7,
    0x58, 0x3d, 0x9a, 0x9d, 0x5a, 0x3e, 0x1b, 0x5b, 0x83, 0x3d, 0xa1, 0x16, 0x68,
    0x3c, 0xeb, 0x0d, 0x0a, 0x3e, 0x38, 0x43, 0x85, 0xbd, 0x47, 0xf2, 0x04, 0xbe,
    0x01, 0xaf, 0x3b, 0xbd, 0x0a, 0xda, 0x80, 0xbe, 0xf1, 0xaa, 0xf9, 0x3d, 0x44,
    0x35, 0x98, 0xbe, 0x17, 0x4a, 0x96, 0x3e, 0x3a, 0x19, 0xdb, 0x3d, 0x89, 0x24,
    0xd1, 0xbd, 0x5f, 0xfe, 0x06, 0x3e, 0x2d, 0x64, 0x65, 0x3e, 0xfb, 0xac, 0xaa,
    0x3e, 0x73, 0x6e, 0x2c, 0xbe, 0xd5, 0xc7, 0xb3, 0x3e, 0xbd, 0x79, 0x3f, 0xbe,
    0xa8, 0x06, 0x77, 0xbe, 0x3f, 0x53, 0xea, 0xbd, 0x23, 0x82, 0x43, 0x3e, 0xc9,
    0x44, 0x6e, 0x3e, 0x1b, 0x9a, 0x8a, 0x3c, 0xb0, 0xe4, 0x2e, 0xbd, 0x07, 0x5c,
    0x12, 0xbd, 0xd8, 0x5b, 0x37, 0xbe, 0x33, 0x5c, 0x5c, 0xbe, 0xbb, 0x30, 0xfa,
    0xbd, 0xe8, 0x15, 0xfe, 0x3d, 0x30, 0xaf, 0x2e, 0x3e, 0xa7, 0xc2, 0xc6, 0xbd,
    0xa1, 0xdf, 0x74, 0xbe, 0x90, 0x5f, 0x5d, 0x3e, 0xfe, 0x75, 0x9d, 0xbd, 0x89,
    0x88, 0xda, 0x3d, 0x38, 0xb9, 0x2a, 0x3e, 0x1c, 0x4f, 0x43, 0x3d, 0xcc, 0xdc,
    0x21, 0xbd, 0xa7, 0xd5, 0x9c, 0xbc, 0xc3, 0x7d, 0xfb, 0x3d, 0x18, 0x72, 0x89,
    0x3d, 0x97, 0x22, 0xb9, 0x3d, 0x6f, 0x99, 0x42, 0xbe, 0x7e, 0xea, 0x47, 0x3d,
    0x23, 0x4d, 0x1c, 0xbd, 0x15, 0xcc, 0xc3, 0x3d, 0x28, 0x0a, 0x86, 0x3e, 0x24,
    0xa7, 0x8a, 0x3e, 0xa9, 0xab, 0xe8, 0x3c, 0xb0, 0x78, 0x4b, 0x3d, 0xe1, 0x09,
    0x69, 0x3c, 0x97, 0x48, 0xae, 0x3d, 0x58, 0x61, 0x11, 0xbe, 0x1e, 0x60, 0xaa,
    0xbd, 0x64, 0x6f, 0xf9, 0xbd, 0x5e, 0xff, 0x34, 0xbe, 0xf5, 0x2d, 0x16, 0x3e,
    0xd5, 0x44, 0x0a, 0xbe, 0x13, 0x92, 0xf2, 0xbd, 0xb8, 0xe3, 0x39, 0x3d, 0x1a,
    0x45, 0xf8, 0xbd, 0x88, 0x91, 0x03, 0xbe, 0x6e, 0xf0, 0xa7, 0xbd, 0x96, 0x79,
    0x4f, 0x3e, 0x70, 0x54, 0x42, 0x3d, 0x9d, 0xb3, 0x1a, 0x3b, 0x12, 0x2a, 0xbc,
    0x3d, 0xd4, 0x61, 0x1d, 0x3e, 0xb0, 0x88, 0xc4, 0xbe, 0x1d, 0x2e, 0x8d, 0x3e,
    0x8e, 0x89, 0x1a, 0x3d, 0x5b, 0xd8, 0xa0, 0x3e, 0xe3, 0x75, 0xce, 0x3d, 0xa0,
    0x4c, 0xc8, 0xbc, 0xcb, 0x1f, 0x91, 0x3d, 0x82, 0x55, 0x09, 0xbe, 0xe0, 0x95,
    0x3b, 0x3d, 0xd5, 0xe0, 0xf5, 0x3d, 0x29, 0x07, 0x60, 0xbe, 0x36, 0x9f, 0x23,
    0x3e, 0x10, 0x68, 0xae, 0x3d, 0x58, 0x35, 0xdb, 0x3b, 0x7c, 0xb2, 0xa1, 0xbd,
    0xb7, 0x5a, 0x90, 0xbc, 0xad, 0x16, 0xa2, 0x3d, 0x32, 0x9b, 0x7d, 0xbe, 0x7b,
    0xf6, 0x16, 0xbe, 0xfa, 0x6c, 0x19, 0xba, 0x7a, 0xbf, 0xfa, 0xbd, 0x8f, 0xc4,
    0xb5, 0x3e, 0x0d, 0x2d, 0x31, 0x3e, 0x77, 0x44, 0xb5, 0xbd, 0x2d, 0x06, 0x0c,
    0x3e, 0x47, 0xe6, 0x8e, 0x3d, 0x98, 0x51, 0x23, 0xbe, 0xed, 0x2e, 0x2e, 0xbe,
    0x91, 0x03, 0xd6, 0x3d, 0x06, 0xfa, 0x5a, 0xbd, 0x11, 0xa4, 0xb0, 0xbe, 0xf7,
    0x5c, 0xc0, 0xbd, 0xb2, 0x11, 0xd5, 0xbd, 0xf5, 0x9e, 0x6a, 0x3d, 0xf2, 0x97,
    0xa2, 0xbd, 0xa7, 0x55, 0xc3, 0xbd, 0xfb, 0x3a, 0x04, 0xbe, 0x13, 0xa8, 0x15,
    0x3e, 0x29, 0x73, 0x84, 0x3e, 0xb4, 0x82, 0x4a, 0xbe, 0xce, 0xee, 0xe6, 0x3c,
    0xe9, 0x5f, 0xc8, 0xbd, 0x33, 0x99, 0x32, 0x3e, 0xc4, 0x59, 0x02, 0xbc, 0xdd,
    0x74, 0x21, 0xbe, 0x17, 0x2c, 0x6a, 0x3e, 0x46, 0x43, 0x20, 0xbe, 0x45, 0x6d,
    0xe0, 0x3d, 0x3e, 0x82, 0x2e, 0x3d, 0x25, 0x5d, 0x11, 0xbe, 0x72, 0xfa, 0x75,
    0xbd, 0x43, 0xd1, 0x86, 0xbe, 0x9c, 0x36, 0x82, 0xbc, 0x35, 0xa7, 0x52, 0x3e,
    0xa3, 0x6d, 0xd9, 0x3d, 0xb0, 0xee, 0x1a, 0x3e, 0xd1, 0x09, 0xa2, 0x3d, 0xe5,
    0x4f, 0x04, 0xbd, 0x75, 0x3a, 0x4e, 0x3e, 0x7f, 0xa1, 0x24, 0xbe, 0xa0, 0x7a,
    0x82, 0xbe, 0x88, 0x5d, 0xe9, 0x3c, 0x74, 0xd0, 0x7c, 0xbd, 0x3f, 0xd0, 0x31,
    0x3e, 0x5e, 0x74, 0x60, 0xbc, 0xbc, 0x60, 0xc4, 0x3d, 0x06, 0x8f, 0x27, 0x3e,
    0xda, 0xa8, 0x91, 0x3d, 0xb3, 0x8c, 0x43, 0x3e, 0x97, 0xf1, 0x4f, 0x3e, 0xac,
    0x0d, 0x5c, 0xbd, 0xa6, 0x23, 0xb4, 0xbd, 0x02, 0x38, 0x48, 0x3e, 0x62, 0xc6,
    0x4f, 0x3d, 0x8f, 0x77, 0xa5, 0xbe, 0x34, 0x9e, 0x1a, 0xbe, 0xed, 0x18, 0x8d,
    0xbd, 0xd5, 0xb8, 0x29, 0xbe, 0xfe, 0xb3, 0x34, 0x3d, 0x02, 0x4e, 0xdf, 0xbc,
    0x74, 0x85, 0x61, 0x3a, 0x2c, 0xf0, 0xcd, 0xbe, 0x9c, 0xbf, 0x09, 0xbe, 0x3f,
    0x28, 0xf3, 0xbd, 0x7f, 0x94, 0x2d, 0x3e, 0xf3, 0xfe, 0xe4, 0xbd, 0x76, 0xe6,
    0x99, 0xbe, 0x1d, 0x4e, 0x96, 0x3e, 0x0c, 0x1e, 0xda, 0x3c, 0x1d, 0x2e, 0x81,
    0xbe, 0x5c, 0xea, 0x89, 0x3e, 0xb2, 0x1a, 0xb7, 0xbd, 0x3e, 0xc7, 0x0f, 0xbe,
    0xba, 0x0f, 0x8a, 0xbd, 0xb1, 0x23, 0x90, 0x3e, 0xc9, 0xb4, 0xcf, 0x3d, 0x50,
    0xa0, 0xa9, 0xbc, 0x09, 0xf4, 0x73, 0x3d, 0x2f, 0xa3, 0xcb, 0x3d, 0xe7, 0x7c,
    0x20, 0x3d, 0x26, 0x42, 0x48, 0x3e, 0x8b, 0xed, 0x56, 0xbd, 0xe5, 0xd3, 0x06,
    0xbe, 0x47, 0x68, 0xa0, 0x3d, 0x4f, 0x77, 0x5d, 0xbe, 0x67, 0xc9, 0x00, 0xbe,
    0x50, 0x2c, 0x1a, 0x3e, 0x28, 0x66, 0xa6, 0x3e, 0xaa, 0x05, 0x0b, 0xbe, 0x35,
    0x24, 0xe3, 0x3d, 0xc9, 0x0f, 0x14, 0x3e, 0x4f, 0xa9, 0x6a, 0x3d, 0x09, 0x0f,
    0x54, 0xbe, 0xb1, 0xf4, 0x38, 0x3e, 0xa7, 0x0c, 0xb8, 0x3e, 0xc0, 0x90, 0xb1,
    0xbd, 0x0e, 0x75, 0x12, 0xbe, 0x47, 0x73, 0xa1, 0x3e, 0x38, 0x82, 0x67, 0xbd,
    0xfe, 0xa5, 0x7c, 0xbd, 0x2d, 0xd9, 0x96, 0x3e, 0xee, 0xd6, 0x31, 0x3e, 0xa2,
    0xc1, 0xdd, 0xbd, 0xec, 0x5e, 0x11, 0x3e, 0x32, 0x30, 0xb7, 0x3e, 0x62, 0x94,
    0x46, 0x3d, 0xd7, 0xe3, 0x98, 0xbd, 0xd6, 0x91, 0xa8, 0xbe, 0x98, 0x8c, 0xb1,
    0x3d, 0xcd, 0xa8, 0x55, 0xbe, 0x3f, 0xa1, 0xb3, 0x3b, 0x96, 0x82, 0x76, 0x3d,
    0xe8, 0xd2, 0x2d, 0xbe, 0xe4, 0x5d, 0x25, 0x3e, 0xc3, 0x60, 0x06, 0xbe, 0x5e,
    0x7c, 0x13, 0xbe, 0xea, 0xcd, 0x45, 0x3d, 0x63, 0xc5, 0x0e, 0x3e, 0x64, 0xf5,
    0x17, 0x3e, 0x32, 0xc5, 0xdf, 0x3d, 0xac, 0xc5, 0xca, 0x3e, 0x08, 0x07, 0x65,
    0x3b, 0x79, 0x90, 0x14, 0xbd, 0x25, 0x07, 0xa9, 0xbc, 0x9f, 0xd7, 0x8e, 0x3e,
    0xe2, 0xc4, 0x33, 0x3e, 0x28, 0x97, 0x8f, 0xbd, 0x9e, 0x5b, 0xf0, 0x3d, 0x96,
    0xed, 0x3f, 0x3e, 0x1c, 0x4a, 0xf7, 0xbc, 0xf7, 0xc0, 0x10, 0x3e, 0x1c, 0x66,
    0x15, 0xbe, 0xff, 0x6e, 0x84, 0x3e, 0x70, 0x12, 0x9f, 0xbd, 0xcf, 0xdf, 0xc4,
    0x3e, 0x97, 0x8c, 0x0c, 0xbd, 0x0f, 0x8f, 0x04, 0xbd, 0xe6, 0x53, 0xf9, 0xbd,
    0x72, 0x06, 0xe5, 0x3d, 0x33, 0xaa, 0x56, 0xbd, 0x7e, 0xf0, 0xf9, 0x3e, 0xdd,
    0xbb, 0x9a, 0x3e, 0x83, 0xb7, 0xaa, 0x3c, 0x0b, 0xb5, 0xa9, 0xbc, 0x54, 0x77,
    0x68, 0x3e, 0x79, 0xfc, 0x19, 0x3e, 0xa0, 0x88, 0xfe, 0x3d, 0xcc, 0x7b, 0x26,
    0xbe, 0x31, 0x0d, 0xea, 0xbd, 0x73, 0x8d, 0x86, 0xbc, 0x87, 0xc5, 0x02, 0x3e,
    0xf6, 0xe2, 0xb8, 0x3e, 0xfb, 0x2d, 0xa8, 0x3d, 0x63, 0xe4, 0xac, 0xbd, 0xc6,
    0x87, 0xda, 0xbe, 0xe6, 0xac, 0x4f, 0xbc, 0x8c, 0xc0, 0x67, 0x3e, 0x69, 0x6c,
    0xae, 0x3d, 0xc7, 0xb5, 0x2f, 0xbe, 0x0c, 0x6b, 0xd2, 0x3d, 0x3d, 0x59, 0xe8,
    0xbd, 0xbe, 0x45, 0x66, 0x3e, 0xe3, 0x36, 0x3c, 0xbc, 0x21, 0x8b, 0x1b, 0x3d,
    0xf3, 0x9b, 0x7c, 0xbd, 0x5c, 0xc9, 0x4a, 0x3d, 0x7a, 0xe3, 0x16, 0x3e, 0xcc,
    0xa2, 0x26, 0xbe, 0x92, 0x4e, 0x76, 0xbe, 0x3a, 0x87, 0x28, 0xbe, 0x0f, 0x69,
    0x01, 0x3e, 0xb8, 0x87, 0x8d, 0x3e, 0x6e, 0x55, 0x0b, 0x3e, 0xd1, 0x63, 0x04,
    0x3e, 0x61, 0x9c, 0xc4, 0xba, 0xc1, 0xcf, 0x27, 0x3e, 0x9a, 0x7b, 0xa5, 0xbd,
    0x7f, 0x21, 0x07, 0xbe, 0x4b, 0x70, 0x8f, 0xbe, 0x34, 0x90, 0x0c, 0x3e, 0x66,
    0xc3, 0x40, 0xbe, 0x95, 0x22, 0xe2, 0x3e, 0x4a, 0xaf, 0x89, 0xbd, 0xf6, 0x11,
    0x05, 0x3e, 0x13, 0x55, 0x76, 0x3e, 0x3e, 0x58, 0x1d, 0xbd, 0xa4, 0xed, 0xdc,
    0x3b, 0x51, 0x0c, 0x34, 0xbe, 0x0a, 0x46, 0x97, 0xbe, 0x07, 0x4b, 0x2e, 0xbe,
    0xe1, 0x9c, 0x82, 0xbc, 0xca, 0xc6, 0xae, 0x3e, 0xd9, 0x28, 0x80, 0xbe, 0x28,
    0xc6, 0x07, 0x3e, 0x42, 0x82, 0x22, 0x3d, 0xed, 0x25, 0x8f, 0xbd, 0xe6, 0xf3,
    0x06, 0x3d, 0xf1, 0xf9, 0xb0, 0x3d, 0xfc, 0x56, 0xd6, 0xbd, 0x38, 0xf4, 0xcb,
    0xbd, 0xda, 0x2e, 0xf1, 0xbd, 0x58, 0x9e, 0xb5, 0x3e, 0x44, 0xd2, 0xfe, 0x3d,
    0x05, 0x53, 0x2e, 0x3e, 0x30, 0x40, 0x44, 0x3e, 0xc7, 0xd9, 0xb5, 0x3d, 0x3d,
    0x45, 0x3f, 0x3e, 0xf1, 0x5c, 0x36, 0xbe, 0x3e, 0x96, 0x68, 0xbe, 0x8b, 0x78,
    0xdd, 0x3d, 0x9b, 0x53, 0x68, 0x3e, 0x6f, 0x73, 0x4c, 0x3d, 0x80, 0x6c, 0x77,
    0xbd, 0xb9, 0x49, 0xa2, 0x3e, 0xf3, 0x90, 0x80, 0x3e, 0x66, 0x05, 0x89, 0xbd,
    0x2b, 0x67, 0x4a, 0xbe, 0x4e, 0xfe, 0x29, 0x3e, 0x81, 0xc9, 0x34, 0xbe, 0x49,
    0xae, 0x51, 0xbe, 0xa9, 0x99, 0x16, 0xbd, 0xc2, 0x1f, 0xb1, 0x3e, 0x74, 0x4a,
    0x00, 0x3e, 0x13, 0x97, 0x4c, 0xbe, 0x48, 0x0d, 0x03, 0x3e, 0x21, 0x0e, 0xf9,
    0xbd, 0x27, 0xd5, 0x82, 0x3e, 0x0c, 0x94, 0xb0, 0xbd, 0xd8, 0x7e, 0x46, 0xbe,
    0x75, 0xdd, 0x19, 0x3e, 0xb5, 0xae, 0xcc, 0xbe, 0x92, 0x02, 0xf9, 0x3d, 0x3c,
    0x43, 0xca, 0xbd, 0xeb, 0x5d, 0x6f, 0x3e, 0x59, 0x22, 0x5a, 0xbe, 0xc0, 0x8e,
    0x3c, 0xbd, 0x03, 0x04, 0x87, 0x3e, 0x66, 0x3d, 0x9e, 0xbd, 0x40, 0x5d, 0x36,
    0xbe, 0x33, 0x77, 0xca, 0x3d, 0xca, 0xb1, 0x18, 0xbf, 0x49, 0xfa, 0xbe, 0xbd,
    0x22, 0x4c, 0x63, 0x3c, 0x39, 0xca, 0xbe, 0x3e, 0x3d, 0xe2, 0xa7, 0xbe, 0xac,
    0x96, 0xbd, 0x3d, 0x0c, 0x68, 0xaf, 0x3d, 0xf6, 0x98, 0xa3, 0x3e, 0xf2, 0xa5,
    0x28, 0xbe, 0x7f, 0xd8, 0xb4, 0x3e, 0xdc, 0xac, 0x70, 0x3e, 0x71, 0x7a, 0x89,
    0xbe, 0x12, 0xee, 0x7f, 0x3d, 0x0c, 0x50, 0xa7, 0xbd, 0x78, 0x68, 0x33, 0xbc,
    0x8d, 0x22, 0x60, 0x3e, 0xd3, 0xd6, 0xf7, 0xbd, 0x85, 0x56, 0xd8, 0xbb, 0xe2,
    0xe1, 0x9a, 0x3d, 0x1d, 0xa4, 0x41, 0x3d, 0xfb, 0x90, 0xaa, 0xbe, 0x02, 0x4c,
    0xa4, 0x3d, 0x47, 0x4a, 0x76, 0x3b, 0x93, 0xea, 0x39, 0xbd, 0xb0, 0x06, 0x7f,
    0xbe, 0xcc, 0x9f, 0x81, 0xbd, 0xa6, 0x38, 0xd9, 0x3d, 0xcb, 0xc4, 0xaf, 0xbc,
    0x0e, 0x6a, 0x1c, 0x3d, 0xd8, 0x2e, 0x11, 0xbe, 0x41, 0x57, 0x0d, 0x3c, 0x51,
    0x3a, 0x50, 0xbe, 0x75, 0x4d, 0x6e, 0xbd, 0x6d, 0xbe, 0x05, 0x3e, 0x7f, 0xf3,
    0xd3, 0xbd, 0x57, 0x88, 0x2c, 0x3e, 0xea, 0x25, 0x79, 0xbd, 0x9b, 0xc9, 0xb4,
    0x3e, 0x87, 0x2a, 0x01, 0x3e, 0xa8, 0xee, 0xa9, 0x3d, 0x1e, 0xc1, 0xc5, 0x3e,
    0x1a, 0x2a, 0xed, 0xbd, 0xb5, 0x52, 0x05, 0x3c, 0xd1, 0xfd, 0x73, 0xbc, 0x12,
    0xb1, 0xb9, 0x3e, 0xdb, 0xa5, 0xae, 0x3e, 0x5b, 0xbe, 0x33, 0xbd, 0x7e, 0x76,
    0xa2, 0xbd, 0x23, 0x5b, 0xc1, 0xbd, 0x25, 0xb5, 0x5b, 0x3c, 0x15, 0x72, 0xb0,
    0x3d, 0x28, 0x11, 0x9d, 0xbe, 0xa2, 0xcf, 0x61, 0xbe, 0x56, 0x94, 0xce, 0x3d,
    0xb7, 0xd9, 0x78, 0xbd, 0xa5, 0xeb, 0xe0, 0xbd, 0x80, 0xb3, 0x41, 0xbc, 0x55,
    0x9f, 0xb0, 0x3e, 0x7e, 0x79, 0x99, 0x3b, 0xdc, 0x20, 0x4e, 0xbe, 0x94, 0x71,
    0x7d, 0x3e, 0xb3, 0x0d, 0xa9, 0xbd, 0x1d, 0xca, 0xa8, 0xbe, 0xeb, 0x76, 0x0a,
    0xbe, 0x27, 0x69, 0x59, 0x3e, 0xb3, 0xf1, 0x2e, 0xbe, 0x70, 0xfe, 0x77, 0x3d,
    0xe5, 0x6a, 0xd2, 0x3e, 0x3f, 0x7b, 0x87, 0xbd, 0x74, 0x29, 0x8e, 0x3d, 0xf8,
    0x63, 0xc4, 0x3e, 0x19, 0x4d, 0xa6, 0x3d, 0x52, 0xd2, 0xaa, 0xbd, 0x41, 0xee,
    0x93, 0x3d, 0x36, 0x1f, 0x81, 0x3e, 0x8d, 0x93, 0xec, 0xbd, 0x5b, 0xa5, 0x99,
    0xbd, 0x9e, 0x8a, 0x1e, 0x3e, 0xb0, 0x32, 0xc9, 0x3d, 0x1b, 0x74, 0xc3, 0x3d,
    0x37, 0x02, 0x87, 0xbd, 0x23, 0x15, 0x24, 0xbd, 0xd5, 0x73, 0x77, 0xbc, 0xe4,
    0xbf, 0x03, 0xbe, 0xf2, 0xc5, 0x36, 0xbd, 0x65, 0x4a, 0x4f, 0x3d, 0x7a, 0x39,
    0xef, 0x3c, 0xb1, 0xb9, 0x79, 0x3e, 0x7b, 0x73, 0xb3, 0xbe, 0x35, 0xb7, 0x26,
    0xbe, 0xda, 0xbe, 0xca, 0x3d, 0x5b, 0xce, 0xd5, 0xbd, 0x06, 0xca, 0x70, 0xbe,
    0xfb, 0x6c, 0x6f, 0x3e, 0x4f, 0xf4, 0xf9, 0x3e, 0x0f, 0x83, 0x61, 0x3e, 0xb2,
    0x13, 0x1e, 0x3e, 0x25, 0xd1, 0x7f, 0x3e, 0x21, 0x28, 0x73, 0xbd, 0x2a, 0xfc,
    0xe0, 0x3c, 0x41, 0x4b, 0xe1, 0xbe, 0xe2, 0x5e, 0x20, 0xbe, 0x87, 0x10, 0x80,
    0xbe, 0x69, 0x83, 0x5b, 0x3e, 0x4d, 0xb4, 0x33, 0x3e, 0xe6, 0x43, 0x41, 0x3e,
    0xcf, 0x9a, 0xaa, 0xbd, 0x15, 0xf8, 0xae, 0x3d, 0x83, 0xe1, 0x49, 0x3e, 0x43,
    0xb9, 0x46, 0xbc, 0x4c, 0xd8, 0x54, 0x3e, 0x38, 0x16, 0x9e, 0xbe, 0xb2, 0x08,
    0xe4, 0x3c, 0xc6, 0xc6, 0x33, 0xbe, 0xca, 0x58, 0x41, 0xbd, 0xe9, 0x7a, 0xd6,
    0x3d, 0xd2, 0x54, 0x87, 0xbe, 0xc0, 0x14, 0xab, 0x3e, 0xf3, 0xac, 0xb7, 0x3b,
    0xc6, 0xf0, 0x2c, 0xbe, 0x2b, 0x13, 0xa8, 0x3e, 0x55, 0xc5, 0x3b, 0xbe, 0xd1,
    0x6e, 0x88, 0x3d, 0xcd, 0xe1, 0x38, 0xbe, 0xee, 0x26, 0xa1, 0x3e, 0xfe, 0xa7,
    0x58, 0x3d, 0x1c, 0x25, 0x0e, 0xbe, 0x2c, 0x4c, 0x26, 0xbd, 0x3a, 0x86, 0x52,
    0xbd, 0x16, 0xd5, 0x6a, 0xbd, 0xf0, 0x8b, 0x32, 0x3e, 0x03, 0xa7, 0x9c, 0xbd,
    0xda, 0xcd, 0xcc, 0x3d, 0xe7, 0x7b, 0x27, 0xbc, 0x5d, 0xa1, 0x64, 0x3e, 0x59,
    0xa1, 0x30, 0xbe, 0x38, 0x4f, 0x1c, 0xbd, 0x35, 0x9c, 0x4c, 0x3e, 0x0e, 0x75,
    0x7b, 0xbc, 0x59, 0xeb, 0xd8, 0x3d, 0xf8, 0x3e, 0xe0, 0x3d, 0xc0, 0x5a, 0x85,
    0xbd, 0xd0, 0x5c, 0x2a, 0x3e, 0xd8, 0x02, 0xd6, 0xbd, 0x68, 0x7f, 0x59, 0xbd,
    0x87, 0x0d, 0x87, 0x3e, 0xec, 0xf8, 0x8b, 0x3d, 0xb2, 0x7b, 0x4c, 0xbc, 0x09,
    0x9b, 0x18, 0x3d, 0x33, 0x11, 0x27, 0xbe, 0xa4, 0xae, 0xb7, 0x3d, 0xf4, 0xe9,
    0x87, 0xbd, 0x4c, 0xa9, 0x6c, 0x3e, 0x35, 0xda, 0x2f, 0x3e, 0xf3, 0x9b, 0x54,
    0xbe, 0xdc, 0x6a, 0x40, 0x3e, 0xfe, 0x00, 0xf8, 0x3d, 0x22, 0xe6, 0x0e, 0x3b,
    0x3e, 0xac, 0x55, 0x3d, 0x2d, 0xcb, 0x62, 0xbc, 0x29, 0x1e, 0x92, 0x3d, 0x1c,
    0xd9, 0x0b, 0x3e, 0xca, 0xd7, 0x8f, 0x3d, 0xd8, 0xb8, 0x0c, 0x3e, 0x37, 0xbf,
    0xae, 0x3e, 0xb2, 0x00, 0x61, 0x3c, 0x41, 0xfa, 0x06, 0x3e, 0x1b, 0xc8, 0x21,
    0x3e, 0x14, 0x13, 0x3d, 0x3e, 0x6b, 0x37, 0x48, 0x3e, 0xd9, 0xb0, 0x24, 0x3d,
    0x97, 0x7c, 0x22, 0xbd, 0xf6, 0xad, 0x8d, 0x3e, 0x76, 0x6f, 0xdd, 0x3c, 0xdd,
    0xeb, 0x53, 0xbe, 0x42, 0x20, 0x81, 0x3e, 0xa8, 0xa9, 0x01, 0x3e, 0xde, 0x95,
    0x82, 0xbe, 0x78, 0x9f, 0x2f, 0xbd, 0xd8, 0x6d, 0x1e, 0xbd, 0x77, 0xd6, 0xe2,
    0x3d, 0x21, 0xee, 0xd5, 0xbc, 0xa4, 0x0d, 0x13, 0x3d, 0xc9, 0xde, 0xb8, 0xbc,
    0x7b, 0xae, 0xda, 0xbe, 0xd9, 0xb5, 0x00, 0xbe, 0x40, 0xb8, 0x3e, 0xbe, 0x3c,
    0xc7, 0x8e, 0x3d, 0xeb, 0x47, 0xa9, 0xbd, 0xd6, 0x6e, 0xba, 0xbd, 0x90, 0x44,
    0xc4, 0x3b, 0xfd, 0xbb, 0x49, 0xbd, 0xe0, 0x82, 0x03, 0x3e, 0x2d, 0x06, 0xc7,
    0x3d, 0x49, 0x7b, 0xe5, 0x3c, 0x88, 0x80, 0x0c, 0xbd, 0x77, 0x9c, 0x2e, 0xbe,
    0xef, 0x39, 0x15, 0x3d, 0x1c, 0xcb, 0x4d, 0xbe, 0x6c, 0x5c, 0x09, 0x3e, 0x58,
    0xe7, 0x32, 0x3e, 0x78, 0x9f, 0xf7, 0x3e, 0x25, 0xdd, 0x21, 0x3e, 0x8a, 0x5c,
    0x92, 0xbe, 0xf9, 0x13, 0x67, 0x3e, 0x80, 0x27, 0x1e, 0xbd, 0x01, 0x9e, 0xe6,
    0x3d, 0x64, 0x3d, 0x69, 0xbd, 0x11, 0xc0, 0x56, 0x3e, 0xaa, 0x43, 0x91, 0xbd,
    0xe7, 0x52, 0xbe, 0xbe, 0x2a, 0x4f, 0xe6, 0x3d, 0x67, 0xf8, 0x34, 0x3e, 0x75,
    0xa2, 0x48, 0x3d, 0x16, 0x07, 0x01, 0x3b, 0x27, 0xe2, 0x40, 0xbd, 0xdc, 0xa8,
    0xc9, 0xbd, 0x23, 0xeb, 0x83, 0xbd, 0x82, 0xed, 0x01, 0xbe, 0x6e, 0xd0, 0x49,
    0x3d, 0x50, 0x2e, 0xee, 0x3d, 0xd0, 0x52, 0xfd, 0xbd, 0x08, 0xfa, 0x2e, 0xbc,
    0xb9, 0x77, 0xf4, 0x3c, 0xa7, 0xe1, 0xd7, 0xbd, 0x66, 0xe2, 0x00, 0x3e, 0x55,
    0x54, 0xa7, 0xbd, 0xb0, 0xee, 0xa6, 0xbd, 0x63, 0x32, 0xb7, 0x3c, 0x74, 0x49,
    0x69, 0x3c, 0xe8, 0x11, 0x63, 0x3e, 0x50, 0x3d, 0xcd, 0x3d, 0xda, 0x72, 0x2b,
    0xbe, 0xeb, 0xbd, 0xe0, 0xbc, 0x98, 0xff, 0xbc, 0xba, 0x3c, 0xf6, 0x2e, 0xbe,
    0xc6, 0x7f, 0xf9, 0xbd, 0xe0, 0x7a, 0xfe, 0x3d, 0x25, 0x04, 0xf6, 0x3d, 0x1d,
    0x08, 0xfe, 0xbd, 0xaa, 0xcd, 0x6c, 0x3e, 0xbd, 0x11, 0xae, 0x3d, 0xe0, 0x92,
    0x03, 0x3e, 0xe8, 0xe0, 0xa0, 0xbd, 0x33, 0xe8, 0xa9, 0x3b, 0xd2, 0xdf, 0x31,
    0x3d, 0xc9, 0x3c, 0xbb, 0xbc, 0x94, 0xa0, 0x90, 0xbd, 0x25, 0xa6, 0x13, 0xbd,
    0x18, 0xe4, 0xf5, 0xbd, 0xc5, 0x91, 0xb6, 0xbd, 0xee, 0xd1, 0x4f, 0x3c, 0x17,
    0x43, 0x9e, 0x3d, 0x55, 0xd6, 0x95, 0xbd, 0x8a, 0xd7, 0x1e, 0x3e, 0xe4, 0xbd,
    0x7d, 0xbc, 0x50, 0x94, 0xb5, 0x3c, 0x05, 0xf3, 0x2a, 0xbe, 0x5d, 0x28, 0x4d,
    0x3c, 0x59, 0xf4, 0x9b, 0xbc, 0xb2, 0x1c, 0x39, 0xbe, 0x2d, 0xba, 0x4e, 0x3d,
    0xcc, 0x61, 0x98, 0x3d, 0x01, 0x31, 0xf8, 0x3d, 0xf3, 0x29, 0x41, 0x3e, 0x58,
    0x70, 0x14, 0x3e, 0x18, 0xcf, 0x31, 0x3e, 0x5a, 0xe5, 0x61, 0xbe, 0x17, 0x82,
    0x10, 0xbd, 0x5a, 0x51, 0x3a, 0x3d, 0x0a, 0xcf, 0xcf, 0x3d, 0x31, 0x8a, 0x8c,
    0xbe, 0x67, 0xf2, 0xb3, 0x3c, 0x42, 0x1c, 0x4c, 0x3e, 0x0b, 0xe8, 0x72, 0x3e,
    0x0d, 0xa4, 0xc6, 0xbc, 0xb2, 0xa1, 0xd8, 0x3d, 0x2c, 0x76, 0x11, 0xbe, 0x47,
    0x57, 0x87, 0x3b, 0x57, 0x78, 0x25, 0xbe, 0x9c, 0xd7, 0x3b, 0x3d, 0xae, 0x60,
    0x68, 0x3d, 0x0b, 0x1d, 0xcf, 0x3d, 0x8a, 0x89, 0x07, 0x3d, 0x27, 0x01, 0xe0,
    0x3e, 0x5c, 0xce, 0x6a, 0x3e, 0xaa, 0x65, 0x10, 0x3c, 0x41, 0xd7, 0x0f, 0xbe,
    0xf3, 0x14, 0xce, 0x3d, 0xb8, 0xee, 0x15, 0x3e, 0x7b, 0x5f, 0x00, 0xbd, 0xab,
    0x6f, 0xad, 0xbc, 0x91, 0x82, 0x0a, 0x3e, 0xbc, 0xad, 0x23, 0xbe, 0x39, 0xca,
    0x9e, 0xbe, 0x42, 0xdd, 0x3a, 0x3e, 0x88, 0x54, 0x80, 0x3d, 0x95, 0x2d, 0x40,
    0xbd, 0x08, 0x98, 0x30, 0x3d, 0xf6, 0xc3, 0x38, 0xbe, 0x8e, 0x3a, 0xdd, 0xbd,
    0x5e, 0x48, 0x47, 0xbc, 0xb6, 0x0a, 0x4a, 0xbe, 0xa1, 0xbf, 0xcd, 0x3d, 0xbc,
    0xed, 0x80, 0xbd, 0x13, 0x6f, 0x80, 0x3d, 0x29, 0x05, 0xe1, 0xbc, 0x33, 0x48,
    0xe7, 0x3d, 0x20, 0x5a, 0x96, 0xbd, 0x8a, 0x89, 0x00, 0x3e, 0x99, 0x50, 0x22,
    0x3e, 0xd7, 0xa5, 0x81, 0xbe, 0x5d, 0x1c, 0xc1, 0x3d, 0x82, 0x42, 0x13, 0xbe,
    0xc2, 0x5d, 0x88, 0x3e, 0x0a, 0x30, 0x1c, 0x3e, 0xa4, 0xb7, 0xd0, 0x3d, 0x6c,
    0x83, 0x9e, 0xbb, 0x81, 0x1a, 0x0f, 0x3e, 0x44, 0xf2, 0x57, 0xbe, 0xad, 0xdf,
    0x96, 0x3e, 0xf1, 0xb4, 0x83, 0xbe, 0x95, 0xe1, 0x30, 0x3e, 0x5f, 0x34, 0xc0,
    0xbd, 0xc6, 0x62, 0x1e, 0xbe, 0xa6, 0xc3, 0x36, 0xbe, 0x14, 0x20, 0xf3, 0x3c,
    0x1c, 0x72, 0x88, 0x3d, 0x0d, 0x56, 0x53, 0xbe, 0x81, 0x9e, 0xca, 0xbb, 0x55,
    0x32, 0x88, 0xbd, 0x62, 0xab, 0x1a, 0x3e, 0xe9, 0xc0, 0x1b, 0x3e, 0xce, 0xae,
    0xd5, 0x3d, 0x7d, 0x32, 0x8e, 0x3e, 0x1b, 0xb7, 0x81, 0x3d, 0xdf, 0x0b, 0x3e,
    0x3e, 0xc3, 0xe6, 0x3d, 0x3e, 0x28, 0x70, 0xf5, 0xbd, 0x16, 0x4b, 0x8d, 0x3d,
    0x62, 0xda, 0x67, 0xbe, 0x55, 0x54, 0x34, 0x3d, 0xbc, 0x80, 0x8e, 0x3d, 0x90,
    0xa9, 0x39, 0x3e, 0x6e, 0x23, 0x38, 0xbd, 0x77, 0xa6, 0x93, 0x3e, 0xa2, 0xe7,
    0xff, 0xff, 0x10, 0x00, 0x00, 0x00, 0x08, 0x00, 0x00, 0x00, 0x1c, 0x00, 0x00,
    0x00, 0x50, 0x00, 0x00, 0x00, 0x04, 0x00, 0x00, 0x00, 0x0a, 0x00, 0x00, 0x00,
    0x03, 0x00, 0x00, 0x00, 0x03, 0x00, 0x00, 0x00, 0x0a, 0x00, 0x00, 0x00, 0x30,
    0x00, 0x00, 0x00, 0x66, 0x75, 0x6e, 0x63, 0x74, 0x69, 0x6f, 0x6e, 0x61, 0x6c,
    0x5f, 0x32, 0x31, 0x2f, 0x66, 0x75, 0x6e, 0x63, 0x74, 0x69, 0x6f, 0x6e, 0x61,
    0x6c, 0x5f, 0x39, 0x2f, 0x65, 0x78, 0x69, 0x74, 0x32, 0x2f, 0x63, 0x6f, 0x6e,
    0x76, 0x32, 0x64, 0x5f, 0x33, 0x2f, 0x43, 0x6f, 0x6e, 0x76, 0x32, 0x44, 0x00,
    0x00, 0x00, 0x00, 0x1c, 0xe7, 0xff, 0xff, 0x42, 0xe8, 0xff, 0xff, 0x04, 0x00,
    0x00, 0x00, 0x08, 0x07, 0x00, 0x00, 0x26, 0xb9, 0x77, 0x3e, 0x83, 0x43, 0x3b,
    0x3d, 0x69, 0x4c, 0x09, 0x3e, 0xfd, 0x09, 0x7a, 0x3e, 0xdf, 0x10, 0x90, 0xbe,
    0xd7, 0x91, 0xa0, 0x3e, 0xe4, 0x42, 0x27, 0x3e, 0x09, 0x3f, 0x8b, 0x3d, 0x72,
    0xb0, 0xb5, 0x3d, 0x37, 0x6c, 0xb0, 0xbe, 0x87, 0xd7, 0x6d, 0x3e, 0x6c, 0x1a,
    0xa3, 0xbd, 0x7a, 0x0e, 0x1f, 0x3e, 0x88, 0x33, 0x90, 0x3e, 0x07, 0xd6, 0x8a,
    0x3d, 0xcf, 0x4f, 0x5c, 0x3e, 0x4e, 0x5b, 0x43, 0x3d, 0x94, 0x91, 0x0b, 0x3b,
    0x2f, 0x2b, 0x3b, 0xbd, 0xd8, 0x9c, 0xa4, 0xbe, 0x9b, 0x54, 0x68, 0x3e, 0xfc,
    0xd3, 0x8f, 0xbd, 0x2f, 0xb7, 0xbf, 0x3e, 0x54, 0x69, 0xe9, 0x3c, 0xd2, 0xfa,
    0x8f, 0xbe, 0x71, 0xaa, 0xb5, 0xbd, 0xb1, 0xac, 0xae, 0xbe, 0xbc, 0x08, 0x7c,
    0x3d, 0x09, 0xe8, 0x22, 0xbd, 0x14, 0xe8, 0x9b, 0x3d, 0x7e, 0x37, 0xb9, 0x3b,
    0x5f, 0x01, 0x17, 0x3e, 0xf6, 0xe7, 0x01, 0x3e, 0x82, 0xd4, 0x43, 0x3e, 0x96,
    0xcf, 0x69, 0xbd, 0x99, 0xe2, 0x8b, 0xbb, 0x8d, 0x75, 0x26, 0x3e, 0x8c, 0x31,
    0x8c, 0x3e, 0x4e, 0xbe, 0x81, 0x3e, 0x06, 0xd2, 0xb1, 0x3d, 0x25, 0xbe, 0x39,
    0xbd, 0x63, 0x24, 0x8f, 0xbe, 0xb6, 0xa7, 0x12, 0x3d, 0x1b, 0xb5, 0x90, 0xbe,
    0x89, 0xb3, 0x31, 0xbd, 0xc5, 0x23, 0xc0, 0x3d, 0x35, 0x21, 0x18, 0xbd, 0xf8,
    0xd4, 0x5d, 0x3d, 0x7c, 0xc3, 0xae, 0x3e, 0xaa, 0xdd, 0x97, 0x3e, 0x3e, 0x31,
    0x1f, 0xbd, 0xb7, 0x40, 0x66, 0x3e, 0x91, 0xd1, 0x96, 0xbd, 0xf6, 0x58, 0x46,
    0x3e, 0x0f, 0x29, 0x02, 0x3e, 0x55, 0x49, 0xbd, 0x3d, 0x88, 0xf2, 0xbb, 0x3e,
    0x68, 0x9b, 0x33, 0x3e, 0xa6, 0x03, 0x9e, 0x3e, 0x7d, 0xfd, 0x9b, 0x3e, 0xde,
    0xdf, 0x9d, 0x3e, 0xe6, 0xa5, 0x72, 0x3e, 0x19, 0xaa, 0x2a, 0x3e, 0x11, 0x60,
    0x8d, 0x3e, 0x53, 0xde, 0x42, 0x3e, 0xa8, 0xd9, 0x95, 0x3e, 0x82, 0xf5, 0x75,
    0xbb, 0x92, 0xfd, 0x75, 0x3e, 0xb5, 0x17, 0x98, 0x3e, 0x9a, 0xf6, 0xf9, 0x3e,
    0x05, 0xb3, 0x6a, 0x3e, 0x18, 0xf7, 0xc3, 0x3d, 0xac, 0x05, 0x0d, 0xbe, 0x0e,
    0x28, 0x5a, 0x3e, 0xa1, 0x26, 0x4b, 0x3e, 0x0e, 0x9f, 0x0b, 0xbe, 0xef, 0x77,
    0x82, 0xbe, 0x6b, 0xc0, 0xe2, 0xbd, 0x45, 0x26, 0xf9, 0xbd, 0x10, 0x2a, 0x11,
    0x3f, 0xaa, 0x08, 0xd7, 0xbd, 0xe5, 0x62, 0xcd, 0xbe, 0xc1, 0x9c, 0xc0, 0xbe,
    0x53, 0x79, 0xa1, 0xbe, 0xd9, 0x1d, 0xe4, 0x3e, 0x17, 0x17, 0x85, 0x3d, 0x59,
    0x2e, 0xe7, 0xbe, 0x2a, 0x03, 0xe2, 0xbe, 0x1e, 0xc1, 0x9f, 0xbe, 0x52, 0x7f,
    0xc7, 0x3d, 0x4e, 0xee, 0xad, 0x3d, 0x1b, 0x07, 0x6d, 0x3e, 0x9e, 0x92, 0x2e,
    0xbd, 0xe2, 0x77, 0x9c, 0xbc, 0xbd, 0x5a, 0xcc, 0x3e, 0x28, 0xc5, 0x7b, 0xbe,
    0x94, 0x1f, 0x8c, 0xbe, 0xf3, 0x1a, 0xfc, 0xbc, 0x24, 0x6d, 0xac, 0xbd, 0x44,
    0x83, 0xb5, 0x3e, 0x45, 0xa9, 0xf2, 0xbd, 0x91, 0xc3, 0x58, 0xbe, 0x29, 0x01,
    0x5c, 0xbe, 0x66, 0xc4, 0xb8, 0xbe, 0x04, 0xbe, 0x39, 0x3f, 0x64, 0x99, 0x64,
    0xbd, 0x76, 0x35, 0x82, 0x3e, 0xe0, 0x7e, 0x87, 0x3e, 0x97, 0xbc, 0x4b, 0x3e,
    0x0a, 0x1e, 0x39, 0x3f, 0x72, 0xd4, 0x22, 0xbe, 0x3c, 0x20, 0x95, 0x3e, 0x0f,
    0xe7, 0xb6, 0x3e, 0x0e, 0x4b, 0x5d, 0x3e, 0x3a, 0x98, 0x23, 0x3f, 0x03, 0xd2,
    0x19, 0xbe, 0xd8, 0x5b, 0x8c, 0x3e, 0x87, 0xef, 0x37, 0xbd, 0x85, 0xfc, 0x13,
    0xbe, 0x23, 0xcc, 0x16, 0x3f, 0x1e, 0xd1, 0x9f, 0x3d, 0x2b, 0x05, 0xf4, 0xbd,
    0x3a, 0x13, 0x33, 0xbe, 0x3e, 0x08, 0xb6, 0x3d, 0x28, 0x75, 0x26, 0x3f, 0xcf,
    0x63, 0x86, 0x3e, 0x00, 0x1a, 0x8e, 0x3e, 0xea, 0x23, 0x00, 0x3b, 0x1e, 0xac,
    0x1f, 0xbd, 0x5f, 0x9f, 0x0a, 0x3f, 0x39, 0xc1, 0x9d, 0x3e, 0x4d, 0xee, 0x80,
    0x3e, 0x96, 0x00, 0x83, 0xbc, 0xcd, 0x65, 0x02, 0x3e, 0x1f, 0x29, 0xa3, 0x3e,
    0x16, 0xfc, 0xfa, 0x3d, 0x06, 0xcc, 0x33, 0x3e, 0xe3, 0x49, 0x04, 0x3e, 0x12,
    0xce, 0xb2, 0x3e, 0x32, 0x28, 0x6b, 0x3e, 0xb2, 0x4e, 0x3a, 0xbd, 0x71, 0xe0,
    0x81, 0x3e, 0x9f, 0x2d, 0x4e, 0x3e, 0x84, 0xa9, 0x1d, 0x3d, 0xbc, 0xaa, 0x51,
    0x3e, 0xec, 0xe6, 0x14, 0x3d, 0x44, 0x17, 0x54, 0x3d, 0x5f, 0x5d, 0xd3, 0x3d,
    0x16, 0x75, 0x4b, 0xbd, 0x33, 0x8b, 0x2f, 0x3f, 0x2f, 0x3e, 0x4e, 0x3c, 0x20,
    0x0f, 0x44, 0xbe, 0x9c, 0x4b, 0xce, 0xbd, 0xfc, 0x73, 0x8b, 0x3e, 0x51, 0x07,
    0xf3, 0xbe, 0x38, 0x9f, 0x0d, 0xbe, 0x7b, 0x83, 0x66, 0x3e, 0xe0, 0xf9, 0xf2,
    0x3b, 0x73, 0xa1, 0x35, 0xbe, 0xe4, 0x73, 0x60, 0x3c, 0x89, 0xdd, 0x81, 0x3c,
    0xf7, 0xb6, 0x94, 0x3e, 0xe9, 0x9b, 0xb1, 0x3e, 0xbe, 0x96, 0x18, 0xbe, 0x96,
    0x78, 0x8c, 0x3e, 0xfb, 0xc0, 0xd5, 0xbc, 0x58, 0xc5, 0xa1, 0xbc, 0x2c, 0x06,
    0xb9, 0x3e, 0x5c, 0xdb, 0xea, 0x3d, 0xa9, 0x64, 0x2e, 0xbe, 0x6d, 0xdd, 0x60,
    0xbe, 0xfb, 0xe2, 0x9b, 0xbe, 0x14, 0xa8, 0xdc, 0x3d, 0x9f, 0xad, 0xbc, 0xbb,
    0x03, 0xc7, 0xde, 0x3e, 0x22, 0xe0, 0x14, 0xbe, 0x27, 0xb6, 0x70, 0x3e, 0x60,
    0x1a, 0x5e, 0xbd, 0xea, 0x54, 0x95, 0xbd, 0x73, 0xfe, 0x7d, 0x3f, 0x22, 0xa3,
    0x27, 0xbe, 0xfd, 0x5a, 0x78, 0x3e, 0x59, 0xbc, 0xb1, 0xbe, 0x3d, 0x1d, 0x59,
    0xbd, 0xd1, 0xb3, 0x22, 0x3d, 0xae, 0xa0, 0xe1, 0x3e, 0xda, 0x0a, 0x8c, 0x3e,
    0x26, 0x7b, 0xa6, 0x3e, 0x75, 0x77, 0x11, 0x3e, 0x12, 0xfd, 0xa3, 0x3e, 0x80,
    0xe7, 0xb0, 0x3e, 0x54, 0xe3, 0xa9, 0x3c, 0x62, 0xd6, 0x35, 0xbc, 0x74, 0xe5,
    0x88, 0x3d, 0x44, 0x11, 0xce, 0xbd, 0x92, 0x55, 0x22, 0xbe, 0xb8, 0x55, 0x8d,
    0xbe, 0x45, 0x03, 0x29, 0xbf, 0xf8, 0x41, 0x5f, 0xbe, 0xa4, 0xf1, 0xff, 0x3d,
    0xf9, 0x7d, 0x29, 0xbd, 0x45, 0x95, 0x6e, 0xbe, 0x32, 0xc2, 0xf6, 0xbe, 0x62,
    0xdb, 0xa8, 0xbe, 0x8e, 0xef, 0x11, 0x3f, 0xe0, 0x39, 0x39, 0xbd, 0x39, 0x8a,
    0x19, 0xbe, 0x16, 0x1d, 0xfd, 0xbe, 0x9a, 0xf5, 0x19, 0xbe, 0x07, 0x54, 0xf8,
    0xbc, 0xed, 0xd9, 0x68, 0xbd, 0x23, 0x30, 0x6d, 0x3e, 0xa8, 0x0c, 0x7b, 0x3d,
    0x46, 0x4d, 0x13, 0xbe, 0xf4, 0xb2, 0xa8, 0x3e, 0x73, 0x6e, 0xe2, 0x3d, 0xf9,
    0xb8, 0x8a, 0x3e, 0xb6, 0x58, 0x89, 0x3d, 0x2b, 0x83, 0x10, 0xbe, 0x7e, 0x9c,
    0x24, 0xbf, 0xf1, 0x8f, 0xa9, 0xbd, 0xc7, 0x2b, 0x84, 0x3e, 0x09, 0x11, 0xce,
    0xbc, 0x67, 0xde, 0x34, 0x3d, 0xd7, 0x25, 0xb5, 0xbe, 0x0f, 0xbe, 0x46, 0x3e,
    0xb3, 0xb3, 0x3a, 0xbe, 0x2a, 0x75, 0x76, 0xbe, 0x6b, 0x30, 0x5f, 0xbe, 0x71,
    0x8b, 0x71, 0xbe, 0xc1, 0xdd, 0x88, 0x3e, 0x28, 0x44, 0x45, 0x3d, 0x7a, 0x10,
    0xd4, 0xbd, 0x4c, 0xd2, 0x6c, 0xbe, 0x0b, 0x92, 0xcf, 0xbe, 0x6e, 0xf2, 0x88,
    0x3e, 0x0c, 0x7f, 0x9b, 0x3e, 0xbc, 0xde, 0x65, 0xbc, 0x54, 0x21, 0xda, 0x3d,
    0x99, 0xe1, 0x3d, 0xbf, 0x86, 0x2d, 0xcd, 0x3d, 0xde, 0x6a, 0x6d, 0xbe, 0xa9,
    0xc2, 0x91, 0xbe, 0xa8, 0x76, 0x35, 0xbe, 0x06, 0x34, 0x55, 0xbe, 0xcf, 0xee,
    0x95, 0xbd, 0xcf, 0xa5, 0x53, 0x3e, 0x3a, 0xf3, 0xa4, 0xbd, 0xfa, 0xe5, 0x16,
    0xbe, 0xb9, 0xbc, 0x29, 0xbe, 0xe5, 0x9d, 0xb2, 0x3e, 0xdf, 0xf5, 0xce, 0x3d,
    0xa3, 0xda, 0x07, 0xbd, 0x50, 0xb0, 0x24, 0x3e, 0x11, 0x59, 0xa1, 0xbe, 0x32,
    0xef, 0x03, 0xbd, 0xf9, 0x80, 0x80, 0xbd, 0x54, 0x81, 0xf4, 0xbd, 0x07, 0xcb,
    0x87, 0xbe, 0x94, 0x50, 0xfc, 0xbe, 0xf8, 0x3b, 0x81, 0x3e, 0xb2, 0x03, 0xc6,
    0xbd, 0xfb, 0xd8, 0x9c, 0xbe, 0xc9, 0x18, 0xba, 0xbd, 0x37, 0xd9, 0x28, 0xbe,
    0x99, 0x25, 0x60, 0x3e, 0x4c, 0x36, 0x4f, 0x3e, 0xa9, 0xb7, 0x30, 0x3d, 0x25,
    0x32, 0xab, 0x3e, 0x0e, 0x9c, 0xc6, 0xbe, 0x0e, 0x91, 0x48, 0x3e, 0x11, 0x08,
    0xe6, 0x3d, 0x4d, 0x90, 0xfc, 0xbd, 0x0e, 0xb8, 0xcd, 0x3b, 0xee, 0xa9, 0x01,
    0x3f, 0xf6, 0xe8, 0x59, 0x3e, 0x45, 0x3a, 0xac, 0x3d, 0x91, 0xd4, 0x04, 0x3e,
    0xb9, 0xc5, 0xec, 0x3d, 0x61, 0xd1, 0x4d, 0x3d, 0x36, 0xec, 0x8b, 0xbd, 0xaf,
    0x09, 0xf0, 0xbd, 0x4e, 0xf2, 0xe1, 0x3d, 0x4c, 0x76, 0x9d, 0x3e, 0xcb, 0xef,
    0xb5, 0x3e, 0x07, 0x11, 0x39, 0xbd, 0xe0, 0x00, 0x14, 0x3e, 0xe1, 0xd4, 0x4b,
    0xbe, 0xb2, 0xb0, 0x2c, 0x3e, 0xc8, 0x8f, 0xf1, 0x3d, 0x49, 0x21, 0xc3, 0x3d,
    0xa3, 0x12, 0xa5, 0xbb, 0x4e, 0x14, 0x17, 0x3e, 0x22, 0x99, 0x74, 0xbd, 0x17,
    0xd1, 0x6d, 0x3e, 0xfa, 0x4d, 0x53, 0x3d, 0x31, 0x95, 0x2f, 0x3e, 0x01, 0xc3,
    0x69, 0x3e, 0xad, 0xd4, 0x78, 0x3e, 0xea, 0x4b, 0x8a, 0xbd, 0x59, 0xf0, 0xdf,
    0x3d, 0x7a, 0xcb, 0x50, 0x3e, 0xb5, 0x6d, 0x08, 0xbe, 0xd6, 0x83, 0xe2, 0x3b,
    0xc3, 0x5a, 0x8f, 0xbd, 0xda, 0xaa, 0x15, 0xbe, 0x0d, 0x08, 0x15, 0x3c, 0xe1,
    0xa9, 0x8b, 0x3e, 0x37, 0x18, 0x1e, 0x3e, 0x27, 0xfd, 0xe5, 0x3d, 0x9f, 0x13,
    0xa0, 0xbd, 0xd2, 0xd1, 0x8e, 0x3e, 0xf2, 0x6f, 0xa3, 0x3e, 0x61, 0x98, 0x85,
    0x3d, 0xc5, 0x92, 0x19, 0x3d, 0x22, 0xa7, 0x91, 0x3e, 0x65, 0xd4, 0x19, 0x3e,
    0x6f, 0xe9, 0xbf, 0x3d, 0x6d, 0xaf, 0x68, 0x3e, 0x17, 0xf5, 0x83, 0xbf, 0x6f,
    0x56, 0xa8, 0x3d, 0x45, 0xb3, 0x83, 0x3e, 0xc7, 0x7d, 0x55, 0x3e, 0x6f, 0x92,
    0x90, 0x3e, 0xc6, 0xa8, 0xb5, 0xbe, 0x38, 0x0c, 0x01, 0x3e, 0x02, 0x26, 0x9a,
    0x3d, 0x07, 0x87, 0x67, 0x3e, 0x3b, 0x13, 0x40, 0x3d, 0x03, 0x8d, 0x86, 0x3e,
    0x12, 0xcc, 0xbd, 0x3e, 0xf2, 0xac, 0xb6, 0xbc, 0x81, 0xd3, 0xd9, 0xbc, 0x6a,
    0x0b, 0xde, 0x3e, 0x24, 0x2d, 0xfe, 0xbe, 0x22, 0x3a, 0x45, 0x3d, 0x89, 0xb7,
    0xa7, 0xbe, 0x81, 0x4a, 0xc5, 0x3b, 0x24, 0xd2, 0xa0, 0x3d, 0xe7, 0x2d, 0xae,
    0xbe, 0xf2, 0x24, 0xc3, 0xbe, 0xb0, 0xfb, 0x9b, 0xbe, 0xd3, 0xb3, 0x61, 0xbe,
    0x26, 0x62, 0xa8, 0xbe, 0x87, 0xd5, 0x1c, 0xbd, 0xf8, 0xcc, 0x2d, 0x3d, 0x1b,
    0x59, 0xb1, 0x3d, 0x52, 0x53, 0x41, 0x3e, 0xe8, 0x62, 0xa9, 0x3d, 0x3b, 0xdd,
    0x0e, 0x3e, 0xd3, 0xb3, 0x85, 0xbd, 0xe6, 0x37, 0x39, 0x3d, 0xb7, 0xdb, 0x96,
    0x3d, 0x0d, 0x85, 0x80, 0xbe, 0x53, 0x4a, 0x3b, 0xbd, 0x5e, 0x52, 0x43, 0xbe,
    0xd0, 0x88, 0x03, 0x3d, 0x26, 0x6d, 0x58, 0xbe, 0xaf, 0x26, 0x32, 0x3d, 0x64,
    0xe1, 0x91, 0x3e, 0x22, 0x70, 0xb5, 0x3e, 0x2a, 0x36, 0xaa, 0x3d, 0x1e, 0xf8,
    0x36, 0x3e, 0xac, 0x72, 0xd3, 0x3e, 0xa4, 0x5a, 0x87, 0xbe, 0xc0, 0xe3, 0xee,
    0x3e, 0x04, 0x44, 0x23, 0x3e, 0x35, 0x65, 0xb6, 0x3e, 0x15, 0x8b, 0x94, 0x3e,
    0xb1, 0xf6, 0x00, 0xbf, 0xd3, 0x3a, 0x48, 0xbe, 0xe6, 0x64, 0xa7, 0xbd, 0x37,
    0xab, 0x34, 0xbe, 0xcb, 0xdc, 0xbf, 0xbe, 0x8d, 0xa4, 0x0d, 0xbf, 0xf6, 0x93,
    0x18, 0x3e, 0xfe, 0x0f, 0xc1, 0xb9, 0x3b, 0x5d, 0xee, 0x3a, 0xb2, 0x5b, 0x19,
    0x3e, 0x48, 0xfa, 0xa7, 0x3e, 0x44, 0xfa, 0xfb, 0xbd, 0xc8, 0xb6, 0xe5, 0xbe,
    0x45, 0x71, 0x54, 0xbe, 0xa6, 0xca, 0xf7, 0xbc, 0xb3, 0x8a, 0x3c, 0x3d, 0x6a,
    0x39, 0x91, 0xbc, 0x2c, 0x92, 0x23, 0xbe, 0x4b, 0xda, 0xc1, 0xbe, 0xa3, 0x77,
    0xd2, 0xbe, 0x1c, 0x24, 0xc0, 0xbe, 0xe9, 0xfe, 0xbc, 0xbe, 0x03, 0x7d, 0xd2,
    0xbe, 0x84, 0xe9, 0xcd, 0xbe, 0x8b, 0x51, 0xe2, 0xbe, 0xc6, 0x65, 0xb7, 0x3e,
    0xed, 0x91, 0xda, 0xbd, 0xf9, 0x69, 0x47, 0xbc, 0xaa, 0x41, 0x6e, 0xbe, 0x2f,
    0xfd, 0x24, 0xbe, 0x21, 0x14, 0x1f, 0xbf, 0x56, 0x60, 0xf5, 0x3d, 0x97, 0xe6,
    0x94, 0x3e, 0x8a, 0x60, 0xc6, 0xbd, 0x67, 0x5b, 0x2e, 0x3e, 0x57, 0xa7, 0x28,
    0xbf, 0x64, 0x63, 0xe0, 0xbd, 0x82, 0x2a, 0x2b, 0xbe, 0x6b, 0x2e, 0xd6, 0xbc,
    0x0d, 0xf0, 0x16, 0xbe, 0x64, 0x3d, 0x7f, 0x3d, 0x30, 0x0d, 0x83, 0xbe, 0xf5,
    0xf3, 0x9d, 0x3d, 0x03, 0xee, 0x88, 0xbe, 0xdf, 0x0f, 0xa2, 0xbd, 0x79, 0x43,
    0xe2, 0x3c, 0x85, 0xa4, 0x39, 0x3e, 0xa9, 0x2d, 0x65, 0x3e, 0x06, 0xb1, 0x03,
    0xbe, 0x15, 0xe3, 0xc9, 0x3e, 0x6d, 0x88, 0x1c, 0xbe, 0x71, 0xd1, 0x11, 0x3e,
    0xfb, 0xe0, 0x82, 0x3d, 0xd5, 0x7b, 0x74, 0x3e, 0x4b, 0x6e, 0x6c, 0x3e, 0xbb,
    0x72, 0xb3, 0x3e, 0xef, 0x7b, 0xb4, 0x3e, 0x5a, 0x52, 0x2a, 0x3e, 0xa5, 0xe1,
    0x01, 0x3e, 0x0a, 0xe2, 0xaa, 0x3e, 0x35, 0xdc, 0x9c, 0x3e, 0xb4, 0xab, 0x81,
    0x3e, 0x37, 0x91, 0x9e, 0x3b, 0xbd, 0x8e, 0xe8, 0xbc, 0xbc, 0x0c, 0xee, 0x3d,
    0x62, 0xc1, 0x0c, 0xbe, 0x43, 0xfc, 0x66, 0xbd, 0x78, 0x65, 0xb0, 0xbc, 0xd0,
    0x34, 0xd5, 0xbc, 0xe5, 0x83, 0x8b, 0xbd, 0xcf, 0x4a, 0x0a, 0x3f, 0xcb, 0x28,
    0x02, 0xbe, 0x39, 0x1d, 0x06, 0xba, 0x65, 0x79, 0x8e, 0xbd, 0x9e, 0xb2, 0x42,
    0xbc, 0x7f, 0xcd, 0xeb, 0x3e, 0x85, 0xc2, 0xf7, 0xbd, 0x3f, 0x53, 0xae, 0x3e,
    0x40, 0x68, 0x43, 0x3d, 0x5e, 0x5f, 0x29, 0xbc, 0x92, 0x88, 0x13, 0x3e, 0x1a,
    0xef, 0xff, 0xff, 0x10, 0x00, 0x00, 0x00, 0x07, 0x00, 0x00, 0x00, 0x1c, 0x00,
    0x00, 0x00, 0x54, 0x00, 0x00, 0x00, 0x04, 0x00, 0x00, 0x00, 0x0a, 0x00, 0x00,
    0x00, 0x03, 0x00, 0x00, 0x00, 0x03, 0x00, 0x00, 0x00, 0x05, 0x00, 0x00, 0x00,
    0x36, 0x00, 0x00, 0x00, 0x66, 0x75, 0x6e, 0x63, 0x74, 0x69, 0x6f, 0x6e, 0x61,
    0x6c, 0x5f, 0x32, 0x31, 0x2f, 0x66, 0x75, 0x6e, 0x63, 0x74, 0x69, 0x6f, 0x6e,
    0x61, 0x6c, 0x5f, 0x37, 0x2f, 0x62, 0x61, 0x73, 0x65, 0x5f, 0x6d, 0x6f, 0x64,
    0x65, 0x6c, 0x32, 0x2f, 0x63, 0x6f, 0x6e, 0x76, 0x32, 0x64, 0x5f, 0x32, 0x2f,
    0x43, 0x6f, 0x6e, 0x76, 0x32, 0x44, 0x00, 0x00, 0x98, 0xee, 0xff, 0xff, 0xbe,
    0xef, 0xff, 0xff, 0x04, 0x00, 0x00, 0x00, 0x10, 0x0e, 0x00, 0x00, 0xcd, 0x3a,
    0xcb, 0xbd, 0x7d, 0x8d, 0xd4, 0x3d, 0x8a, 0x23, 0x5e, 0xbd, 0x6f, 0x54, 0x70,
    0x3e, 0x4d, 0x6b, 0x21, 0xbc, 0x5a, 0x35, 0x54, 0xbe, 0x5c, 0x24, 0xdb, 0xbe,
    0xf7, 0x34, 0xac, 0x3e, 0x36, 0xfd, 0x3b, 0xbd, 0xdf, 0x00, 0x57, 0x3e, 0x7d,
    0x42, 0x0a, 0xbe, 0x10, 0x56, 0xa7, 0x3b, 0x33, 0x05, 0x40, 0xbe, 0x11, 0x17,
    0x56, 0xbd, 0xc8, 0x6d, 0xab, 0xbe, 0x86, 0xa6, 0xa8, 0xbd, 0x8f, 0x82, 0x97,
    0x3b, 0xce, 0x99, 0x55, 0x3c, 0xf3, 0x94, 0x73, 0xbe, 0x6f, 0xa1, 0x68, 0x3e,
    0x11, 0x47, 0x0c, 0x3d, 0x6e, 0x2d, 0xbd, 0x3c, 0x21, 0x0e, 0xb3, 0xbd, 0x04,
    0x19, 0x72, 0xbb, 0x70, 0xa9, 0x9b, 0xbd, 0xa3, 0xb2, 0x1b, 0xbd, 0x89, 0x7b,
    0x98, 0xbe, 0xe5, 0x37, 0x49, 0x3e, 0x30, 0x5a, 0x72, 0x3d, 0x04, 0x99, 0xea,
    0x3d, 0x0f, 0xf3, 0xdb, 0x3d, 0xb5, 0x1e, 0x70, 0x3d, 0xaf, 0x86, 0x60, 0x3e,
    0x6e, 0xb0, 0xc8, 0xbe, 0x2c, 0x04, 0x43, 0xbe, 0x3a, 0x18, 0x14, 0x3d, 0xfc,
    0x3a, 0xe2, 0xbe, 0x65, 0x14, 0x31, 0x3d, 0xa7, 0xcd, 0xd4, 0xbd, 0xc7, 0x40,
    0xc9, 0x3d, 0x0f, 0x38, 0x8e, 0xbe, 0x50, 0xcf, 0xc6, 0x3c, 0x23, 0x5f, 0x76,
    0x3d, 0xaf, 0xb6, 0x17, 0xbe, 0xc2, 0xcb, 0x37, 0xbd, 0xe7, 0x54, 0x12, 0x3e,
    0x0c, 0xd8, 0x68, 0x3d, 0xb6, 0x75, 0x75, 0x3c, 0xed, 0x4c, 0x5f, 0xbe, 0xdf,
    0xf5, 0xaa, 0xbe, 0x83, 0xbf, 0x21, 0x3e, 0x23, 0xb5, 0x9e, 0xbc, 0xde, 0xed,
    0x1d, 0xbe, 0xb5, 0x69, 0x1f, 0x3e, 0x7c, 0xd3, 0x84, 0xbe, 0x9d, 0x9c, 0x12,
    0xbe, 0x8c, 0x79, 0x83, 0xbe, 0x3d, 0x97, 0x32, 0xbe, 0x49, 0xc0, 0x43, 0x3e,
    0x57, 0xbf, 0x9e, 0xbe, 0x63, 0xd7, 0x6e, 0xbe, 0xc3, 0x16, 0x1d, 0x3d, 0x75,
    0x01, 0x35, 0xbd, 0x9c, 0x48, 0x3d, 0x3e, 0x97, 0x55, 0xbf, 0xbc, 0xae, 0x25,
    0x1f, 0xbe, 0xc3, 0x32, 0x88, 0x3e, 0xc8, 0xb0, 0xe2, 0xbd, 0x6b, 0x42, 0x21,
    0xbd, 0x28, 0x4c, 0xa3, 0x3d, 0xb4, 0x78, 0x2b, 0xbe, 0x44, 0x42, 0x40, 0xbe,
    0x71, 0x5e, 0xc5, 0xbe, 0x8a, 0x39, 0x35, 0xbe, 0x64, 0x8e, 0x80, 0x3e, 0x20,
    0x67, 0xca, 0xbe, 0x2b, 0xc7, 0x80, 0x3e, 0x45, 0xfc, 0x82, 0x3d, 0x48, 0x33,
    0xca, 0x3e, 0x65, 0x84, 0x1d, 0x3e, 0xfe, 0x6f, 0xf5, 0x3d, 0xea, 0x0c, 0x9e,
    0x3e, 0x71, 0x5e, 0x9f, 0x3e, 0xbb, 0x10, 0x4e, 0x3e, 0xbd, 0xab, 0x95, 0xbe,
    0xb1, 0xb6, 0x1f, 0x3e, 0x75, 0xa5, 0x5d, 0x3e, 0xb4, 0xa5, 0x6e, 0x3e, 0x68,
    0xe6, 0xf5, 0xbe, 0x80, 0xa8, 0xd8, 0x3c, 0x03, 0x5d, 0xb4, 0x3d, 0xce, 0xa6,
    0x9b, 0xbe, 0xde, 0x37, 0x75, 0xbc, 0xc0, 0xd1, 0x3b, 0x3e, 0xa1, 0xcb, 0x88,
    0xbe, 0x0d, 0xf2, 0x27, 0xbc, 0x68, 0x51, 0xcb, 0x3e, 0x32, 0xac, 0x9a, 0x3b,
    0xfe, 0x41, 0x9c, 0x3e, 0xec, 0xa4, 0xb0, 0xbe, 0xa3, 0x7a, 0x8c, 0x3d, 0x2c,
    0x69, 0x2a, 0xbd, 0xbb, 0xdf, 0xda, 0x3d, 0x3d, 0xa3, 0x74, 0xbb, 0x00, 0x6d,
    0x85, 0xbe, 0xbb, 0xc6, 0x4f, 0x3e, 0x04, 0x09, 0xe7, 0xbe, 0xbe, 0xb4, 0x24,
    0x3e, 0x8e, 0xa4, 0x8b, 0x3e, 0xac, 0xf8, 0x43, 0xbe, 0xe9, 0xf5, 0x66, 0xbd,
    0xe0, 0x8e, 0xf2, 0xbe, 0xa5, 0xd2, 0x97, 0x3e, 0xc8, 0x02, 0xa5, 0x3d, 0x3a,
    0x2b, 0x94, 0x3e, 0x1b, 0x71, 0x29, 0x3e, 0xaf, 0x3b, 0x1e, 0xbf, 0x93, 0x6d,
    0x4d, 0xbe, 0xff, 0x66, 0x2c, 0xbd, 0xef, 0x77, 0x21, 0x3d, 0x63, 0x83, 0xdd,
    0xbd, 0x47, 0x1d, 0x70, 0xbd, 0x51, 0x68, 0x33, 0xbc, 0x25, 0x72, 0x17, 0xbe,
    0x44, 0x00, 0x0d, 0x3e, 0xc1, 0x37, 0x8c, 0xbb, 0x37, 0x81, 0x13, 0xbd, 0xf3,
    0xcd, 0xb6, 0xbd, 0xf3, 0xc4, 0xa7, 0x3e, 0x7a, 0xb8, 0x80, 0x3c, 0xaf, 0xb3,
    0x3c, 0xbd, 0x92, 0xab, 0xa2, 0xbe, 0xaa, 0xfd, 0x98, 0x3e, 0x6a, 0xab, 0xe7,
    0x3a, 0xd9, 0xd0, 0x46, 0x3c, 0x34, 0xbd, 0xc4, 0xbc, 0xfb, 0x5c, 0xe8, 0x3c,
    0x08, 0x33, 0x80, 0x3d, 0x9c, 0xcd, 0xda, 0x3b, 0x7d, 0x32, 0xfc, 0x3c, 0xd2,
    0x33, 0xfc, 0xbe, 0xda, 0x52, 0xfa, 0xbd, 0x6a, 0x24, 0xdb, 0x3e, 0x93, 0xef,
    0x27, 0xbe, 0xe0, 0xb7, 0x1e, 0x3d, 0x9f, 0x57, 0xc9, 0x3e, 0xe8, 0x59, 0xe0,
    0x3e, 0x92, 0xa6, 0x80, 0xbc, 0x20, 0xd9, 0x94, 0x3e, 0x96, 0x7b, 0x06, 0x3e,
    0xdd, 0x22, 0xdd, 0x3d, 0x80, 0x1d, 0x91, 0x3c, 0x24, 0x9e, 0x40, 0x3e, 0x85,
    0x0b, 0x80, 0xbe, 0x72, 0x19, 0xaf, 0x3e, 0x2f, 0x2d, 0xb4, 0x3c, 0x4f, 0x30,
    0xbd, 0x3d, 0x7b, 0x83, 0xb0, 0x3d, 0xb8, 0x3d, 0x34, 0x3e, 0xf7, 0xf8, 0xbb,
    0xbe, 0x34, 0x89, 0x35, 0x3e, 0xdc, 0xe8, 0xfe, 0xbb, 0x3a, 0xdb, 0x5a, 0x3d,
    0xa9, 0xbc, 0x85, 0xbe, 0xcc, 0x0c, 0x7d, 0xbe, 0x4b, 0x39, 0x52, 0x3e, 0xc7,
    0x10, 0x2b, 0x3d, 0x4d, 0xa8, 0x4a, 0xbd, 0x9b, 0x2b, 0xdb, 0xbd, 0xf7, 0xce,
    0x48, 0xbd, 0xe8, 0x47, 0xdb, 0x3d, 0x59, 0x21, 0x0a, 0xbe, 0xf0, 0x2b, 0x95,
    0x3e, 0xf8, 0x9d, 0xb5, 0xbd, 0x7d, 0xc6, 0x17, 0xbd, 0xcc, 0x1e, 0x1b, 0xbe,
    0xaf, 0xab, 0x12, 0xbd, 0x3d, 0x82, 0xf8, 0x3d, 0x42, 0x8e, 0xc6, 0x3d, 0x2a,
    0xca, 0x0a, 0x3d, 0x41, 0xac, 0xa0, 0x3c, 0x10, 0x6d, 0x14, 0x3e, 0xcf, 0x33,
    0x9f, 0xbc, 0x93, 0xe4, 0x8a, 0xbd, 0x40, 0x7f, 0x20, 0x3e, 0x8e, 0xdf, 0xf2,
    0xbe, 0x25, 0x79, 0x80, 0x3e, 0x7f, 0x22, 0xe9, 0xbb, 0x3e, 0x16, 0x2d, 0x3d,
    0x81, 0x3c, 0x9d, 0x3d, 0x7b, 0x24, 0x58, 0xbd, 0x35, 0x06, 0x3e, 0x3d, 0x4b,
    0x92, 0xa7, 0x3c, 0xc4, 0xdd, 0x6b, 0xbe, 0xff, 0x2d, 0x78, 0xbe, 0xbe, 0x21,
    0xaf, 0x3d, 0xb9, 0x55, 0x8a, 0x3e, 0x5f, 0xaf, 0x20, 0x3d, 0x99, 0xde, 0x4e,
    0xbe, 0x00, 0x1c, 0xea, 0xbd, 0xab, 0x17, 0xed, 0x3d, 0xbc, 0x91, 0xda, 0x3d,
    0xe8, 0xe3, 0x0e, 0x3e, 0xdd, 0x5a, 0x25, 0xbe, 0x80, 0x28, 0xdd, 0x3c, 0x29,
    0x62, 0xfa, 0x3d, 0xc9, 0x07, 0x9a, 0xbe, 0xde, 0xee, 0x4f, 0x3d, 0xa0, 0x4a,
    0x53, 0x3e, 0xf5, 0x90, 0x0b, 0x3d, 0x9b, 0xf2, 0xfa, 0x3c, 0x36, 0x46, 0x22,
    0xbe, 0x03, 0x9f, 0x97, 0x3d, 0x25, 0xe5, 0x3d, 0x3d, 0x9c, 0xd3, 0x81, 0xbd,
    0xdb, 0xa7, 0x82, 0xbd, 0x77, 0xfa, 0x53, 0x3e, 0x0a, 0x38, 0x5f, 0x3e, 0x56,
    0x8f, 0x23, 0x3e, 0x60, 0x86, 0x19, 0x3e, 0x56, 0x8c, 0x95, 0xbe, 0x6b, 0x90,
    0x98, 0xbe, 0x02, 0x87, 0x3b, 0xbe, 0x58, 0x39, 0x3e, 0xbe, 0x55, 0x44, 0x19,
    0xbe, 0x0d, 0x18, 0x05, 0xbe, 0x53, 0xab, 0x6a, 0xbe, 0x42, 0x0d, 0xff, 0xbc,
    0xdb, 0x5e, 0x00, 0xbd, 0x11, 0x27, 0xe3, 0xbd, 0x61, 0x69, 0x0b, 0x3e, 0xe6,
    0x4a, 0x2e, 0x3e, 0xe5, 0xb3, 0x80, 0xbb, 0x1c, 0x66, 0x46, 0x3c, 0x8f, 0x30,
    0x43, 0xbd, 0x4d, 0x6e, 0xf1, 0x3d, 0xd7, 0x56, 0x20, 0x3e, 0xed, 0x1e, 0xc0,
    0xbd, 0x1f, 0x3c, 0x81, 0x3e, 0x7c, 0xf8, 0xd5, 0x3d, 0x34, 0x50, 0x07, 0xbe,
    0x09, 0x1a, 0x3b, 0x3e, 0xa3, 0xf2, 0xb8, 0x3e, 0xa0, 0x7e, 0xca, 0xbd, 0x4e,
    0x47, 0xb5, 0xbe, 0x09, 0x52, 0x0f, 0x3d, 0x18, 0x0c, 0x58, 0x3e, 0x51, 0xc6,
    0xe9, 0x3d, 0x10, 0xb4, 0x64, 0x3e, 0xe3, 0x30, 0x46, 0x3d, 0xe4, 0xe4, 0x77,
    0xbd, 0x4d, 0x5c, 0x3b, 0x3e, 0xd1, 0x13, 0xbb, 0x3e, 0x08, 0x6a, 0x86, 0x3c,
    0x07, 0x01, 0x29, 0xbb, 0x58, 0xd4, 0x33, 0xbd, 0xc9, 0xa3, 0xc2, 0x3d, 0x61,
    0xcb, 0x09, 0xbe, 0x71, 0xcd, 0x37, 0x3e, 0xbc, 0x01, 0x4b, 0x3e, 0x46, 0x21,
    0x82, 0xbe, 0x0e, 0x06, 0x41, 0x3e, 0x1e, 0x65, 0x5e, 0xbd, 0xe7, 0x21, 0x15,
    0x3d, 0x62, 0xb7, 0xc4, 0x3d, 0x9f, 0xdc, 0x8e, 0xbe, 0xba, 0x65, 0xa6, 0xbd,
    0xe6, 0xfc, 0x9c, 0x3e, 0x23, 0xc3, 0x69, 0x3a, 0x91, 0xc9, 0x36, 0x3d, 0x97,
    0xa5, 0xe1, 0x3d, 0xe2, 0xef, 0x42, 0x3e, 0xc1, 0xa8, 0x5d, 0xbe, 0xb5, 0xd8,
    0xb8, 0x39, 0xfe, 0x98, 0x29, 0x3d, 0x8a, 0x23, 0x80, 0x3e, 0xd6, 0x29, 0x2f,
    0x3e, 0xf9, 0x13, 0x3a, 0xbe, 0x9e, 0x29, 0xd7, 0xbb, 0x20, 0x16, 0xeb, 0x3d,
    0xca, 0x21, 0xe3, 0xbd, 0x87, 0xcb, 0xc5, 0xbd, 0x89, 0xc5, 0x51, 0xbb, 0x4b,
    0x34, 0x5d, 0xbd, 0x1d, 0x46, 0x05, 0x3e, 0xbf, 0xe3, 0x35, 0xbe, 0x60, 0xe9,
    0xe0, 0x3d, 0x1a, 0x72, 0x31, 0xbe, 0xf7, 0xcb, 0x7e, 0xbe, 0xec, 0x60, 0x0f,
    0xbe, 0x79, 0x68, 0x2d, 0x3c, 0x65, 0xc2, 0xf7, 0x3c, 0x31, 0x8b, 0x96, 0xbe,
    0x66, 0xad, 0x17, 0x3e, 0x3f, 0x6a, 0x74, 0x3c, 0x87, 0x0f, 0x3d, 0x3d, 0xf4,
    0x00, 0xcc, 0xbe, 0x7a, 0x93, 0x31, 0xbc, 0x68, 0xff, 0xa3, 0x3e, 0xa0, 0xf3,
    0xaa, 0x3e, 0x71, 0xc3, 0x65, 0xbe, 0x7a, 0x26, 0x32, 0xbd, 0x2c, 0xd6, 0x63,
    0xbe, 0x27, 0x71, 0x8d, 0x3d, 0xa6, 0xf2, 0x61, 0x3e, 0x71, 0xb7, 0x9e, 0x3e,
    0xa6, 0x85, 0x7e, 0x3e, 0x25, 0xff, 0x8f, 0xbd, 0x98, 0x94, 0x90, 0x3d, 0x14,
    0x74, 0x25, 0x3e, 0x96, 0x60, 0x30, 0x3e, 0xb2, 0x5a, 0x18, 0xbe, 0x2f, 0x66,
    0x97, 0x3d, 0xf0, 0x67, 0x99, 0x3d, 0x2d, 0x33, 0xc1, 0xbc, 0x86, 0x6d, 0xd8,
    0xbd, 0x70, 0x51, 0x3d, 0x3d, 0xcb, 0xbe, 0xbb, 0xbe, 0x77, 0x2a, 0x2f, 0x3e,
    0x78, 0x87, 0x8b, 0xbd, 0x6a, 0x43, 0x5a, 0xbe, 0xcd, 0xa2, 0x55, 0xbe, 0x36,
    0xd6, 0xa9, 0xbd, 0x44, 0xe8, 0x5b, 0x3e, 0x75, 0x80, 0x81, 0xba, 0x3d, 0xf5,
    0xe5, 0xbd, 0xe1, 0x8a, 0xff, 0xbc, 0x50, 0x8d, 0x07, 0xbe, 0x4d, 0x25, 0x63,
    0xbd, 0x51, 0x4a, 0x31, 0x3e, 0x35, 0xc9, 0xea, 0xbd, 0xb1, 0x01, 0x45, 0xbd,
    0xe5, 0xf4, 0xa7, 0xbe, 0x96, 0x60, 0xb0, 0x3e, 0x92, 0x70, 0x78, 0xbe, 0xb0,
    0xe7, 0x9e, 0xbe, 0x30, 0xa9, 0x40, 0x3e, 0xb2, 0xfd, 0xfb, 0x3c, 0x97, 0xb7,
    0x9a, 0x3e, 0x20, 0x9d, 0x3d, 0x3e, 0x31, 0x5d, 0xe5, 0x3d, 0xa8, 0x0c, 0x34,
    0xbc, 0xc4, 0xab, 0xbd, 0xbc, 0x1c, 0x6f, 0xa6, 0xbd, 0x3c, 0x5f, 0xa5, 0x3c,
    0x3a, 0x19, 0x27, 0xbd, 0xaf, 0x30, 0xbc, 0x3d, 0xba, 0xc1, 0x7d, 0x3e, 0x41,
    0x67, 0x68, 0xbe, 0xdb, 0xa3, 0xe3, 0xbc, 0x00, 0x6f, 0x26, 0x3e, 0xe8, 0xd1,
    0x80, 0xbe, 0x1e, 0xdd, 0x63, 0x3e, 0x5c, 0xf8, 0x59, 0x3e, 0xf4, 0x92, 0xa7,
    0xbe, 0xa1, 0x8c, 0xda, 0x3d, 0x64, 0xe4, 0x12, 0xbe, 0x33, 0x60, 0x34, 0x3e,
    0xba, 0x19, 0x09, 0x3b, 0xa2, 0x61, 0x07, 0x3c, 0xc6, 0x7d, 0x6b, 0xbe, 0xf6,
    0x42, 0xf5, 0x3d, 0xa2, 0x50, 0x64, 0xbe, 0xf3, 0x70, 0x01, 0xbd, 0x16, 0x5e,
    0x00, 0x3e, 0xa1, 0x2d, 0x07, 0xbf, 0x49, 0x26, 0xeb, 0xbc, 0x21, 0x9b, 0x23,
    0xbe, 0xda, 0x89, 0x01, 0xbe, 0x2a, 0xa3, 0x04, 0x3e, 0xfc, 0xe2, 0x32, 0xbd,
    0xe2, 0x9a, 0x26, 0xbe, 0xc3, 0x83, 0xff, 0xbd, 0x5c, 0x49, 0xfc, 0x3b, 0x75,
    0x94, 0x91, 0xbe, 0x40, 0xcd, 0x64, 0x3e, 0x7c, 0x69, 0xe8, 0x3c, 0xd1, 0xb8,
    0x32, 0x3d, 0x8f, 0xa9, 0x11, 0x3e, 0x66, 0x7e, 0x4f, 0xbe, 0x75, 0xbd, 0x5f,
    0x3d, 0x7c, 0x49, 0x26, 0xbe, 0x70, 0x68, 0x5d, 0x3c, 0x5b, 0xb5, 0x0c, 0x3e,
    0x22, 0xa4, 0xcc, 0xbe, 0xa4, 0x33, 0x89, 0x3e, 0x50, 0x59, 0x77, 0x3d, 0x3f,
    0x1a, 0x83, 0xbe, 0xf5, 0xaf, 0x8b, 0x3e, 0x3d, 0xcb, 0x0f, 0x3e, 0x73, 0xc0,
    0x26, 0xbd, 0xfc, 0x48, 0x6b, 0xbe, 0xa8, 0xaf, 0x98, 0xbd, 0x7e, 0x22, 0x1e,
    0x3d, 0x59, 0xa3, 0xdc, 0xbd, 0x0d, 0x71, 0xda, 0xbe, 0xae, 0x86, 0xc5, 0x3b,
    0x83, 0x64, 0xa7, 0x3d, 0xe9, 0x14, 0x8a, 0xbd, 0xdf, 0x57, 0x49, 0xbe, 0x51,
    0xaf, 0x1e, 0x3e, 0x12, 0x6c, 0x13, 0x3e, 0xac, 0x35, 0x83, 0xbd, 0x8b, 0x7a,
    0x7f, 0x3e, 0x5d, 0xc6, 0x7b, 0xbe, 0x9f, 0xe6, 0x82, 0x3c, 0x06, 0xa5, 0xd6,
    0xbc, 0x66, 0x34, 0x3d, 0xbe, 0x74, 0x7f, 0x86, 0x3e, 0x59, 0x4a, 0x6b, 0x3e,
    0x8e, 0x15, 0x1f, 0x3e, 0x2c, 0x4e, 0x60, 0x3d, 0xfa, 0x5f, 0x56, 0xbe, 0x41,
    0xa1, 0x42, 0x3e, 0x69, 0x3f, 0x9b, 0x3e, 0xe3, 0xc6, 0x74, 0x3b, 0x61, 0xb2,
    0x73, 0xbd, 0x8e, 0x61, 0xa0, 0x3d, 0xb3, 0xe1, 0x96, 0xbe, 0x27, 0xbd, 0x90,
    0x3d, 0x70, 0x0d, 0x00, 0x3e, 0x5f, 0xc5, 0xb8, 0x3d, 0x38, 0xb1, 0x1f, 0xbe,
    0xad, 0x38, 0x8d, 0xbe, 0xc3, 0xc6, 0xaf, 0x3a, 0xf3, 0x0d, 0xf1, 0x3d, 0x7b,
    0x1e, 0xde, 0x3c, 0x06, 0xf4, 0x2c, 0x3e, 0xe8, 0x20, 0xb3, 0xbd, 0x3a, 0x65,
    0xf4, 0xbd, 0xbc, 0x2b, 0xec, 0xbd, 0x2b, 0x74, 0x00, 0x3e, 0xb6, 0xf2, 0xd1,
    0xbc, 0x58, 0x57, 0x80, 0x3e, 0xe3, 0xcf, 0x3f, 0x3e, 0x38, 0x07, 0x18, 0x3e,
    0xa0, 0xd4, 0xe0, 0x3b, 0xde, 0xc0, 0x2c, 0xbd, 0x3a, 0xee, 0x9c, 0xbc, 0x15,
    0xfc, 0x0e, 0x3d, 0xe7, 0x59, 0xac, 0xbe, 0x03, 0x9d, 0xb7, 0x3c, 0xf1, 0x57,
    0xf9, 0xbe, 0x58, 0xdb, 0x2b, 0xbe, 0x3f, 0xf3, 0xfc, 0xbd, 0x19, 0xe5, 0xaf,
    0x3d, 0x9c, 0x7f, 0x84, 0x3d, 0x20, 0x23, 0x2c, 0x3d, 0x3d, 0xbe, 0x16, 0x3e,
    0x15, 0xe8, 0xc1, 0xbd, 0x14, 0xde, 0xcc, 0xbd, 0x39, 0x7c, 0x32, 0x3d, 0x5a,
    0x97, 0x2d, 0xbd, 0x81, 0x78, 0xd5, 0x3e, 0x13, 0xc4, 0x84, 0xbc, 0x78, 0x25,
    0xb3, 0x3e, 0x39, 0x85, 0x98, 0xbe, 0x9d, 0x5a, 0xab, 0x3d, 0x05, 0xb7, 0x18,
    0x3c, 0x5d, 0x48, 0x4f, 0xbe, 0xb5, 0xe1, 0xcf, 0xbd, 0x53, 0x82, 0x87, 0x3e,
    0xb8, 0xc4, 0xd0, 0x3d, 0x1b, 0x67, 0x7a, 0x3e, 0xca, 0x8a, 0x59, 0x3e, 0xcd,
    0x0c, 0xeb, 0x3e, 0x30, 0x92, 0x90, 0xbe, 0xe5, 0xd3, 0x24, 0xbd, 0x09, 0x2e,
    0xd0, 0xbd, 0x0c, 0xfd, 0x25, 0xbd, 0x28, 0x97, 0xa8, 0x3d, 0xef, 0xb3, 0x1d,
    0xbd, 0x15, 0x09, 0xbd, 0xbe, 0x17, 0x53, 0x1b, 0xbd, 0xbf, 0x39, 0xc8, 0x3e,
    0x9d, 0x89, 0x33, 0xbe, 0xf7, 0xa5, 0xf4, 0x3e, 0x91, 0x0f, 0x6e, 0x3d, 0x6e,
    0xd0, 0xeb, 0xbe, 0x9e, 0x77, 0x07, 0xbd, 0xa3, 0x6f, 0x91, 0xbe, 0x56, 0x4f,
    0x9a, 0xbb, 0x16, 0x0d, 0xb8, 0x3d, 0xc2, 0x3d, 0x02, 0xbe, 0x86, 0x53, 0x0f,
    0xbe, 0x89, 0xc4, 0xb0, 0x3a, 0x09, 0xd6, 0xef, 0xbd, 0x28, 0x90, 0xff, 0xbd,
    0x2f, 0x9f, 0x12, 0x3d, 0x30, 0x49, 0x81, 0x3d, 0x47, 0x6a, 0x9e, 0x3e, 0x19,
    0xea, 0x28, 0x3c, 0x8d, 0x53, 0x92, 0x3e, 0x56, 0xab, 0xbb, 0x3d, 0xef, 0x78,
    0x97, 0xbd, 0x23, 0x93, 0x5e, 0x3d, 0x00, 0xa6, 0x8c, 0x3e, 0x4f, 0x2c, 0xd8,
    0x3c, 0x35, 0x73, 0x70, 0x3e, 0x3c, 0xf6, 0x8d, 0x3d, 0x2e, 0x9c, 0x86, 0xbd,
    0x49, 0xdf, 0xd6, 0xbc, 0x2f, 0x69, 0x12, 0xbe, 0x26, 0xf9, 0x77, 0xbe, 0x94,
    0xb6, 0x42, 0x3e, 0x1e, 0x25, 0xa9, 0xbe, 0x29, 0x71, 0x20, 0xbe, 0x31, 0xb8,
    0x84, 0xbd, 0x53, 0x02, 0x89, 0xbd, 0xec, 0x2b, 0x58, 0xbe, 0x87, 0xd6, 0x7d,
    0x3d, 0x8c, 0xdb, 0x0e, 0x3d, 0xbd, 0x9a, 0xd8, 0xbe, 0xb6, 0x2b, 0x40, 0x3d,
    0x78, 0x95, 0x79, 0x3d, 0x88, 0x82, 0xbb, 0xbe, 0x59, 0x94, 0x18, 0x3e, 0xaf,
    0x54, 0x94, 0xbd, 0x64, 0x19, 0x92, 0x3d, 0xc5, 0x05, 0x52, 0x3d, 0xb4, 0x4d,
    0x4d, 0x3c, 0xf0, 0x7b, 0x33, 0xbb, 0xb5, 0x28, 0x6f, 0xbe, 0xdb, 0xd1, 0x0e,
    0x3e, 0xe9, 0xff, 0x38, 0x3e, 0x9d, 0x5c, 0x1d, 0xbe, 0x56, 0x1e, 0x25, 0xbe,
    0x36, 0x53, 0x84, 0x3e, 0xfd, 0x06, 0xc4, 0x3d, 0x8c, 0x1b, 0xb5, 0x3d, 0xb7,
    0xb3, 0x72, 0xbb, 0xbe, 0xbb, 0x76, 0xbe, 0xbd, 0x17, 0x1f, 0xbf, 0x16, 0xcb,
    0x90, 0x3e, 0x92, 0x67, 0xab, 0xbe, 0x24, 0xa0, 0x85, 0x3d, 0xce, 0x62, 0xcc,
    0xbd, 0x44, 0xd6, 0x80, 0xbe, 0x4a, 0x87, 0xc1, 0xbd, 0xa7, 0x4f, 0xdd, 0x3c,
    0x32, 0x0d, 0x78, 0x3d, 0x53, 0x07, 0x39, 0xbe, 0xae, 0x9d, 0x24, 0xbe, 0xfb,
    0x8e, 0x2a, 0x3e, 0x9d, 0x17, 0x0c, 0xbc, 0x04, 0x55, 0x78, 0x3e, 0xbb, 0x1e,
    0xcd, 0xbe, 0xd6, 0x15, 0x88, 0x3e, 0x3f, 0x1c, 0x19, 0x3f, 0x32, 0x17, 0xd3,
    0xbd, 0xed, 0x25, 0x02, 0x3d, 0x99, 0xbb, 0xa4, 0xbb, 0x51, 0x31, 0x64, 0x3e,
    0x54, 0x50, 0x02, 0xbe, 0x46, 0xc3, 0x27, 0x3c, 0xe5, 0x34, 0xbe, 0x3e, 0x5f,
    0x3a, 0x2e, 0xbd, 0xd0, 0x30, 0x2d, 0x3e, 0x08, 0xb7, 0x95, 0x3e, 0xfd, 0x86,
    0xe9, 0xbd, 0xb3, 0x11, 0xee, 0xbc, 0x17, 0xa1, 0x1b, 0x3e, 0xf9, 0xe6, 0xeb,
    0xbe, 0x7b, 0x8a, 0xc1, 0x3d, 0xd0, 0x5f, 0x9d, 0x3e, 0x60, 0xa1, 0xac, 0xbd,
    0x41, 0x10, 0x48, 0x3e, 0xc9, 0xe0, 0xe2, 0xbd, 0xa7, 0x81, 0x67, 0xbe, 0x48,
    0xfc, 0x85, 0xbe, 0x3a, 0x80, 0x6b, 0x3d, 0x6b, 0x2e, 0x0d, 0x3e, 0xd6, 0xf5,
    0x76, 0x3d, 0xe3, 0x7a, 0x02, 0x3c, 0x99, 0x61, 0xe5, 0xbd, 0x0f, 0x80, 0x3e,
    0xbe, 0x66, 0x46, 0x7f, 0xbe, 0xcf, 0xd2, 0x3b, 0xbe, 0xbc, 0x93, 0x2e, 0xbd,
    0x05, 0x11, 0x3d, 0x3e, 0xa6, 0x99, 0x3b, 0xbe, 0xc2, 0xd2, 0x98, 0x3e, 0x85,
    0xf7, 0x6c, 0xbd, 0xb1, 0xad, 0xa3, 0xbd, 0x9a, 0x6d, 0x9a, 0x3d, 0xb1, 0x9f,
    0x79, 0x3d, 0xfb, 0x5f, 0xe8, 0xbd, 0x6c, 0x1c, 0xce, 0xbc, 0x30, 0xef, 0xd6,
    0xbd, 0x28, 0x24, 0xdc, 0xbd, 0xac, 0x7b, 0xdf, 0xbd, 0x90, 0x3b, 0x0d, 0x3d,
    0xa5, 0x5f, 0x0f, 0xbf, 0x37, 0x11, 0xfd, 0xbd, 0xc4, 0xe0, 0x93, 0x3d, 0xfb,
    0x4e, 0x58, 0x3d, 0x95, 0x58, 0x03, 0x3e, 0x0c, 0xa2, 0x31, 0x3e, 0x5b, 0x21,
    0x9a, 0xbe, 0x1c, 0x98, 0x07, 0x3e, 0x97, 0x4c, 0x94, 0xbd, 0x9e, 0x4a, 0x52,
    0x3c, 0x09, 0xf0, 0x9d, 0x3d, 0x8e, 0xd1, 0x2c, 0x3d, 0x31, 0x87, 0xdd, 0xbe,
    0xab, 0xf3, 0x57, 0xbd, 0x45, 0x6a, 0xe4, 0xbd, 0x7c, 0x13, 0x70, 0xbe, 0xd3,
    0x1d, 0xd5, 0x3b, 0x5f, 0xdd, 0x43, 0xbe, 0xf0, 0x3a, 0x68, 0xbe, 0x60, 0x5a,
    0x43, 0x3e, 0x47, 0xe2, 0x11, 0xbf, 0xb1, 0x39, 0x40, 0x3e, 0x90, 0x4c, 0x73,
    0x3e, 0x22, 0x7c, 0xe6, 0xbe, 0x66, 0xf7, 0xd3, 0x3e, 0xa6, 0x62, 0x5c, 0xbe,
    0xed, 0xd1, 0xfc, 0x3d, 0x74, 0x30, 0x8f, 0x3e, 0x12, 0x89, 0xdc, 0x3d, 0xff,
    0x13, 0xc2, 0xbe, 0x9c, 0xc4, 0xc2, 0xbd, 0xd6, 0xcf, 0x06, 0xbe, 0xd7, 0x82,
    0x85, 0xbb, 0x8d, 0x98, 0x81, 0x3d, 0x0b, 0x0a, 0x8a, 0x3d, 0xae, 0x52, 0x25,
    0xbe, 0x94, 0xb8, 0xd9, 0x3d, 0xca, 0x1c, 0x34, 0x3e, 0xd6, 0xbf, 0x82, 0xbe,
    0xfc, 0xda, 0xa1, 0xbe, 0x72, 0x4c, 0x8f, 0x3d, 0xee, 0x5d, 0x27, 0xbe, 0xb8,
    0xfd, 0x26, 0x3e, 0x9e, 0x54, 0xb8, 0xbd, 0x13, 0xb2, 0x08, 0x3d, 0x5c, 0x98,
    0x7e, 0xbe, 0x27, 0xe9, 0xac, 0x3e, 0x9e, 0x49, 0x5a, 0x3e, 0x40, 0x56, 0x86,
    0x3e, 0xc6, 0xdd, 0x82, 0x3c, 0x87, 0x47, 0xc8, 0x3b, 0xd9, 0xbb, 0x14, 0x3e,
    0x44, 0xa0, 0x5d, 0xbd, 0xc6, 0x9c, 0x45, 0xbe, 0x79, 0x83, 0xd6, 0xbd, 0xbd,
    0xd0, 0xe5, 0xbd, 0x1f, 0x68, 0x2b, 0x3e, 0x23, 0x75, 0x8b, 0xbd, 0x01, 0x33,
    0xb1, 0xbe, 0xef, 0xed, 0xed, 0x3d, 0x43, 0xd8, 0x67, 0x3e, 0x1e, 0xa2, 0xea,
    0x3d, 0x0c, 0x7b, 0xd7, 0xbe, 0x92, 0x2e, 0xaa, 0x3e, 0x54, 0x51, 0x0e, 0xbf,
    0xd7, 0xd6, 0xca, 0x3e, 0x00, 0xc7, 0x5a, 0x3e, 0x78, 0xe5, 0xcd, 0xbd, 0x8e,
    0xdf, 0x92, 0x3e, 0x5c, 0x7d, 0x0d, 0xbd, 0x80, 0xb7, 0x7d, 0xbe, 0xd2, 0xfc,
    0x1f, 0x3e, 0xa9, 0x8e, 0xa9, 0x3e, 0x09, 0x6c, 0x20, 0xbe, 0x4d, 0x58, 0x3a,
    0xbc, 0xd8, 0xe8, 0x15, 0x3e, 0xa0, 0x9a, 0x92, 0xbd, 0xce, 0x2b, 0x0a, 0x3e,
    0x05, 0xe4, 0x0a, 0xbe, 0x13, 0x34, 0xf5, 0xbd, 0xc2, 0x7a, 0xb1, 0xbc, 0x04,
    0x44, 0x00, 0xbe, 0x85, 0xb4, 0x55, 0xbd, 0x0b, 0xc0, 0xf2, 0xbd, 0xc3, 0xc8,
    0x15, 0xbe, 0xec, 0x7e, 0x16, 0xbe, 0x3e, 0x50, 0x10, 0x3e, 0x67, 0x2c, 0xcc,
    0x3c, 0x8c, 0x1c, 0xd6, 0x3e, 0x56, 0xca, 0x2c, 0x3e, 0xfa, 0x96, 0x81, 0xbe,
    0xfd, 0x00, 0x1b, 0xbe, 0x8a, 0x2c, 0x80, 0x3d, 0x56, 0x5b, 0x87, 0x3e, 0x5a,
    0x9a, 0x52, 0xbd, 0x4f, 0x9a, 0xe7, 0x3d, 0x09, 0x04, 0x84, 0x3e, 0xb7, 0x95,
    0x9b, 0xbe, 0x5f, 0xa0, 0x0e, 0xbb, 0x1d, 0x9e, 0x4e, 0xbc, 0x96, 0x39, 0xbd,
    0x3d, 0xca, 0x57, 0xfa, 0x3d, 0x6a, 0x33, 0x84, 0x3e, 0x1c, 0xaf, 0x01, 0x3e,
    0x60, 0xd9, 0x1d, 0x3e, 0x87, 0x66, 0x4d, 0x3e, 0xfc, 0x4a, 0xa0, 0xbe, 0x46,
    0xd0, 0x66, 0xbc, 0x9a, 0x4c, 0x57, 0xbe, 0xf5, 0xe6, 0x40, 0x3c, 0xfa, 0x41,
    0x36, 0x3e, 0xb8, 0x57, 0xcd, 0xbd, 0x6d, 0x30, 0x34, 0xbe, 0x83, 0x02, 0x50,
    0x3e, 0x27, 0x75, 0x8c, 0xbd, 0xb5, 0xcf, 0x18, 0xbe, 0xc3, 0x31, 0x96, 0xbc,
    0x54, 0x58, 0x0c, 0xbe, 0x9e, 0xc6, 0x17, 0xbe, 0x5e, 0x6c, 0x44, 0x3e, 0x4c,
    0x89, 0x32, 0x3d, 0xdb, 0xbd, 0x92, 0xbe, 0x00, 0x33, 0xd8, 0xbc, 0xee, 0x76,
    0xca, 0xbb, 0x1c, 0xd6, 0x03, 0xbe, 0xec, 0x16, 0x1a, 0xbe, 0x7d, 0xa2, 0x78,
    0xbd, 0x30, 0x3c, 0x16, 0x3e, 0xa9, 0xfb, 0x09, 0x3e, 0x28, 0xea, 0xb8, 0x3d,
    0x11, 0x3d, 0xbd, 0x3a, 0x52, 0x73, 0xb2, 0xbc, 0x06, 0x9a, 0xd5, 0x3d, 0x3c,
    0x62, 0xa3, 0xbe, 0x88, 0xcb, 0x79, 0xbe, 0x62, 0x4d, 0x3e, 0xbd, 0x0f, 0xa0,
    0x0e, 0xbf, 0x8f, 0x17, 0x93, 0x3d, 0xea, 0xdb, 0x1b, 0xbe, 0xee, 0x0b, 0x3a,
    0x3e, 0x9a, 0x9e, 0x89, 0x3c, 0x76, 0x37, 0xc2, 0xbc, 0x02, 0x22, 0x6f, 0xbe,
    0xc3, 0x36, 0x57, 0xbd, 0xf7, 0x72, 0x87, 0xbe, 0x1e, 0xf6, 0xa6, 0xbd, 0xa0,
    0x67, 0xa0, 0xbe, 0x29, 0x74, 0x2d, 0x3e, 0xc4, 0x9f, 0x5f, 0x3d, 0x19, 0x97,
    0xb3, 0xbb, 0x03, 0x90, 0xe0, 0xbe, 0xa0, 0xa9, 0x79, 0xbe, 0x88, 0x16, 0xae,
    0x3e, 0xb9, 0x71, 0xf1, 0xbd, 0x01, 0x91, 0x1d, 0xbe, 0x5f, 0x6d, 0x0e, 0xbe,
    0x31, 0x72, 0x73, 0xbd, 0x2d, 0xa3, 0x72, 0x3d, 0xc8, 0x55, 0x8c, 0xbe, 0xd1,
    0x01, 0xb3, 0xbd, 0x50, 0xd2, 0x03, 0xbe, 0x0e, 0xf2, 0x97, 0x3d, 0x3d, 0xa7,
    0x25, 0xbe, 0x34, 0xe1, 0x20, 0xbe, 0x99, 0x4e, 0x30, 0x3d, 0x64, 0xe0, 0x3c,
    0x3e, 0x87, 0x6d, 0x84, 0x3d, 0x23, 0xbf, 0x0b, 0x3d, 0x91, 0xf2, 0x99, 0x3d,
    0x72, 0x2d, 0x62, 0x3e, 0xbe, 0xa1, 0xf1, 0xbd, 0x51, 0xb6, 0x53, 0x3e, 0x2a,
    0x32, 0x47, 0xbe, 0xb2, 0x24, 0xe6, 0xbd, 0x97, 0xaf, 0xc7, 0x3e, 0x3d, 0x18,
    0xc8, 0xbd, 0x24, 0xab, 0x8a, 0xbd, 0x77, 0xbb, 0x59, 0xbd, 0xf8, 0x39, 0x44,
    0xbe, 0x54, 0x5d, 0x28, 0xbd, 0x92, 0x46, 0xad, 0x3d, 0xda, 0x8b, 0x99, 0x3d,
    0x2a, 0x09, 0x86, 0xbd, 0x98, 0xbf, 0x1d, 0xbe, 0x47, 0x45, 0x99, 0x3d, 0xb9,
    0x97, 0x48, 0xbe, 0x91, 0x64, 0x84, 0xbd, 0x10, 0xb3, 0xd6, 0xbd, 0xed, 0xed,
    0xdf, 0x3c, 0xb1, 0x0f, 0xc1, 0x3e, 0x2b, 0xcf, 0xdb, 0x3c, 0xe5, 0x75, 0x14,
    0xbe, 0x02, 0x47, 0x99, 0xbe, 0x6d, 0x4f, 0xbe, 0xbd, 0x31, 0x72, 0x43, 0x3e,
    0xae, 0x16, 0x86, 0xbd, 0x4b, 0xed, 0x19, 0x3e, 0xcb, 0x53, 0xfb, 0x3d, 0x95,
    0x57, 0x9e, 0x3c, 0xd5, 0x4b, 0xc3, 0x3c, 0x45, 0x35, 0xd7, 0xbe, 0xba, 0xab,
    0xa9, 0x3e, 0x3c, 0x14, 0x01, 0xbf, 0x29, 0xbd, 0xa1, 0xbd, 0xd4, 0x99, 0x9d,
    0x3e, 0x00, 0xa7, 0xbf, 0x3d, 0xe5, 0x5a, 0x74, 0xbc, 0x46, 0xfd, 0x80, 0xbe,
    0xb6, 0x5c, 0x21, 0x3c, 0xc8, 0xf1, 0x2f, 0xbc, 0xa3, 0xd4, 0x42, 0x3e, 0x6f,
    0x64, 0x34, 0x3e, 0x85, 0x73, 0xa1, 0xbd, 0x25, 0x2b, 0x10, 0xbe, 0x7d, 0x8a,
    0x38, 0x3e, 0x9a, 0xeb, 0x38, 0x3e, 0x2e, 0xc6, 0x18, 0xbe, 0xc4, 0xcf, 0x1c,
    0x3e, 0xb5, 0xa6, 0x00, 0xbe, 0xee, 0xca, 0xea, 0x3d, 0x54, 0x57, 0x78, 0x3e,
    0x31, 0x27, 0xb1, 0xbe, 0x98, 0x9b, 0x33, 0x3e, 0x4f, 0x4e, 0x41, 0x3e, 0x97,
    0x46, 0x3c, 0xbf, 0xdc, 0x11, 0xcb, 0xbd, 0x8d, 0xc7, 0x5c, 0xbe, 0xf3, 0x2a,
    0x90, 0x3e, 0xc8, 0x5e, 0x82, 0xbe, 0xbd, 0x58, 0xab, 0xbd, 0xd3, 0x6b, 0xa2,
    0xbe, 0x0d, 0x98, 0x5c, 0xbe, 0xa2, 0x5d, 0x82, 0x3e, 0xa6, 0xb0, 0x80, 0xbe,
    0x7b, 0xf0, 0x62, 0x3e, 0x4d, 0xb8, 0xc0, 0x3d, 0x6c, 0xbf, 0x07, 0xbf, 0x13,
    0x5f, 0x17, 0xbe, 0xab, 0xc9, 0x01, 0xbf, 0xca, 0x71, 0x94, 0x3e, 0x0b, 0x93,
    0x3a, 0xbe, 0xcf, 0xdd, 0xd7, 0xba, 0x65, 0x0e, 0x91, 0xbe, 0x3e, 0xde, 0x8d,
    0x3d, 0xff, 0x5b, 0x9b, 0x3b, 0x7b, 0x04, 0x9d, 0x3d, 0xf0, 0xae, 0x2a, 0xbe,
    0x8a, 0x02, 0x51, 0xbe, 0xfd, 0x7f, 0xbe, 0x3c, 0x0e, 0xa3, 0x4a, 0x3d, 0xfd,
    0xd0, 0x24, 0x3e, 0x31, 0xc3, 0xa1, 0x3e, 0xc6, 0xce, 0x1d, 0x3d, 0x02, 0x93,
    0x7b, 0xbe, 0x53, 0xda, 0x03, 0xbe, 0xcc, 0x45, 0xe3, 0xbd, 0xfc, 0x00, 0x7a,
    0xbe, 0xb4, 0x6c, 0x8e, 0xbd, 0xce, 0xba, 0xa7, 0x3e, 0xf4, 0x21, 0x6d, 0x3e,
    0xa8, 0x14, 0x99, 0xbd, 0xfa, 0xe6, 0xdf, 0x3d, 0x90, 0x5e, 0x52, 0xbe, 0xcf,
    0xac, 0x52, 0xbe, 0x4f, 0x0f, 0x8d, 0x3e, 0x91, 0x6e, 0x96, 0xbd, 0x98, 0x0a,
    0x32, 0xbc, 0x6c, 0xe2, 0x45, 0xbd, 0x23, 0x71, 0x54, 0x3e, 0x04, 0x99, 0x54,
    0xbe, 0x66, 0xd8, 0x81, 0xbe, 0x1a, 0xba, 0xce, 0x3d, 0x29, 0x0d, 0x36, 0xbe,
    0xe4, 0x83, 0x60, 0x3e, 0xe8, 0x9f, 0xff, 0xbd, 0x87, 0x0e, 0xf8, 0x3b, 0x52,
    0xcf, 0x33, 0x3d, 0xf4, 0x49, 0xb1, 0xbd, 0x26, 0x88, 0xb9, 0xbd, 0xff, 0x1f,
    0xa0, 0x3d, 0x43, 0xeb, 0xcc, 0x3d, 0x7b, 0xfe, 0xff, 0xbd, 0x7f, 0x1b, 0x6c,
    0x3e, 0x4e, 0xbb, 0x07, 0xbd, 0x54, 0x1c, 0x61, 0xbc, 0xf2, 0x6a, 0xed, 0xbd,
    0xd6, 0x0a, 0xfe, 0x3b, 0x3d, 0xdd, 0x9d, 0xbd, 0x07, 0xe7, 0xae, 0x3d, 0x63,
    0x28, 0x82, 0xbe, 0x56, 0xf7, 0x11, 0xbe, 0xf2, 0x60, 0xf9, 0x3d, 0x7b, 0xaa,
    0xfc, 0x3d, 0x2c, 0x4c, 0x03, 0x3d, 0xa7, 0xcc, 0xaf, 0x3c, 0x8a, 0xe4, 0x19,
    0x3e, 0xaa, 0x64, 0x4b, 0xbe, 0x11, 0x2f, 0x05, 0xbd, 0x48, 0x17, 0x0d, 0xbe,
    0x02, 0x9c, 0x0a, 0xbe, 0xc7, 0x5d, 0x28, 0x3d, 0x3a, 0xa0, 0x99, 0xbd, 0xad,
    0x03, 0x7f, 0xbe, 0x09, 0x65, 0x9e, 0x3d, 0xe8, 0xdf, 0x5c, 0x3b, 0x74, 0xff,
    0x33, 0xbe, 0x6f, 0xd5, 0x58, 0xbd, 0xbf, 0x00, 0xbe, 0x3d, 0x9e, 0xfd, 0xff,
    0xff, 0x10, 0x00, 0x00, 0x00, 0x06, 0x00, 0x00, 0x00, 0x14, 0x00, 0x00, 0x00,
    0x44, 0x00, 0x00, 0x00, 0x02, 0x00, 0x00, 0x00, 0x0a, 0x00, 0x00, 0x00, 0x5a,
    0x00, 0x00, 0x00, 0x2f, 0x00, 0x00, 0x00, 0x66, 0x75, 0x6e, 0x63, 0x74, 0x69,
    0x6f, 0x6e, 0x61, 0x6c, 0x5f, 0x32, 0x31, 0x2f, 0x66, 0x75, 0x6e, 0x63, 0x74,
    0x69, 0x6f, 0x6e, 0x61, 0x6c, 0x5f, 0x39, 0x2f, 0x65, 0x78, 0x69, 0x74, 0x32,
    0x2f, 0x64, 0x65, 0x6e, 0x73, 0x65, 0x5f, 0x31, 0x2f, 0x4d, 0x61, 0x74, 0x4d,
    0x75, 0x6c, 0x00, 0x0c, 0xfd, 0xff, 0xff, 0x32, 0xfe, 0xff, 0xff, 0x04, 0x00,
    0x00, 0x00, 0x08, 0x00, 0x00, 0x00, 0xff, 0xff, 0xff, 0xff, 0x5a, 0x00, 0x00,
    0x00, 0x00, 0x00, 0x0e, 0x00, 0x18, 0x00, 0x08, 0x00, 0x07, 0x00, 0x0c, 0x00,
    0x10, 0x00, 0x14, 0x00, 0x0e, 0x00, 0x00, 0x00, 0x00, 0x00, 0x00, 0x02, 0x10,
    0x00, 0x00, 0x00, 0x05, 0x00, 0x00, 0x00, 0x10, 0x00, 0x00, 0x00, 0x44, 0x00,
    0x00, 0x00, 0x01, 0x00, 0x00, 0x00, 0x02, 0x00, 0x00, 0x00, 0x30, 0x00, 0x00,
    0x00, 0x66, 0x75, 0x6e, 0x63, 0x74, 0x69, 0x6f, 0x6e, 0x61, 0x6c, 0x5f, 0x32,
    0x31, 0x2f, 0x66, 0x75, 0x6e, 0x63, 0x74, 0x69, 0x6f, 0x6e, 0x61, 0x6c, 0x5f,
    0x39, 0x2f, 0x65, 0x78, 0x69, 0x74, 0x32, 0x2f, 0x66, 0x6c, 0x61, 0x74, 0x74,
    0x65, 0x6e, 0x5f, 0x31, 0x2f, 0x43, 0x6f, 0x6e, 0x73, 0x74, 0x00, 0x00, 0x00,
    0x00, 0x8c, 0xfd, 0xff, 0xff, 0xb2, 0xfe, 0xff, 0xff, 0x04, 0x00, 0x00, 0x00,
    0x28, 0x00, 0x00, 0x00, 0xd2, 0x7a, 0x85, 0x3b, 0xc2, 0x25, 0xcc, 0x3c, 0x67,
    0xe3, 0xa8, 0xbc, 0x43, 0xd0, 0x6f, 0xbd, 0xcd, 0x08, 0xba, 0xbd, 0x29, 0x5a,
    0xfe, 0xbb, 0x04, 0x70, 0xd6, 0x3c, 0x61, 0x52, 0x8f, 0x3c, 0xfb, 0x6f, 0x95,
    0x3d, 0x11, 0xa4, 0xf2, 0x3c, 0xaa, 0xfe, 0xff, 0xff, 0x10, 0x00, 0x00, 0x00,
    0x04, 0x00, 0x00, 0x00, 0x10, 0x00, 0x00, 0x00, 0x5c, 0x00, 0x00, 0x00, 0x01,
    0x00, 0x00, 0x00, 0x0a, 0x00, 0x00, 0x00, 0x48, 0x00, 0x00, 0x00, 0x66, 0x75,
    0x6e, 0x63, 0x74, 0x69, 0x6f, 0x6e, 0x61, 0x6c, 0x5f, 0x32, 0x31, 0x2f, 0x66,
    0x75, 0x6e, 0x63, 0x74, 0x69, 0x6f, 0x6e, 0x61, 0x6c, 0x5f, 0x39, 0x2f, 0x65,
    0x78, 0x69, 0x74, 0x32, 0x2f, 0x64, 0x65, 0x6e, 0x73, 0x65, 0x5f, 0x31, 0x2f,
    0x42, 0x69, 0x61, 0x73, 0x41, 0x64, 0x64, 0x2f, 0x52, 0x65, 0x61, 0x64, 0x56,
    0x61, 0x72, 0x69, 0x61, 0x62, 0x6c, 0x65, 0x4f, 0x70, 0x2f, 0x72, 0x65, 0x73,
    0x6f, 0x75, 0x72, 0x63, 0x65, 0x00, 0x00, 0x00, 0x00, 0x30, 0xfe, 0xff, 0xff,
    0x56, 0xff, 0xff, 0xff, 0x04, 0x00, 0x00, 0x00, 0x28, 0x00, 0x00, 0x00, 0x3d,
    0x4c, 0xea, 0xbb, 0x3c, 0x78, 0x44, 0x3d, 0xfe, 0x75, 0x0d, 0x3e, 0xc1, 0xb5,
    0x0e, 0xbd, 0xe4, 0xc7, 0xb5, 0x3c, 0x19, 0x4a, 0x0d, 0x3c, 0x35, 0xc6, 0x77,
    0xbd, 0x87, 0xdd, 0x41, 0xbd, 0x58, 0x15, 0xe8, 0xbd, 0x1f, 0x6c, 0x7f, 0xbd,
    0x4e, 0xff, 0xff, 0xff, 0x10, 0x00, 0x00, 0x00, 0x03, 0x00, 0x00, 0x00, 0x10,
    0x00, 0x00, 0x00, 0x60, 0x00, 0x00, 0x00, 0x01, 0x00, 0x00, 0x00, 0x0a, 0x00,
    0x00, 0x00, 0x49, 0x00, 0x00, 0x00, 0x66, 0x75, 0x6e, 0x63, 0x74, 0x69, 0x6f,
    0x6e, 0x61, 0x6c, 0x5f, 0x32, 0x31, 0x2f, 0x66, 0x75, 0x6e, 0x63, 0x74, 0x69,
    0x6f, 0x6e, 0x61, 0x6c, 0x5f, 0x39, 0x2f, 0x65, 0x78, 0x69, 0x74, 0x32, 0x2f,
    0x63, 0x6f, 0x6e, 0x76, 0x32, 0x64, 0x5f, 0x33, 0x2f, 0x42, 0x69, 0x61, 0x73,
    0x41, 0x64, 0x64, 0x2f, 0x52, 0x65, 0x61, 0x64, 0x56, 0x61, 0x72, 0x69, 0x61,
    0x62, 0x6c, 0x65, 0x4f, 0x70, 0x2f, 0x72, 0x65, 0x73, 0x6f, 0x75, 0x72, 0x63,
    0x65, 0x00, 0x00, 0x00, 0x04, 0x00, 0x06, 0x00, 0x04, 0x00, 0x00, 0x00, 0x00,
    0x00, 0x06, 0x00, 0x08, 0x00, 0x04, 0x00, 0x06, 0x00, 0x00, 0x00, 0x04, 0x00,
    0x00, 0x00, 0x28, 0x00, 0x00, 0x00, 0xee, 0xdb, 0x7e, 0xbd, 0x40, 0xde, 0xc5,
    0xbc, 0xb9, 0xcb, 0xc2, 0x3b, 0x98, 0xbd, 0x5d, 0xb9, 0x61, 0xa3, 0x82, 0x3d,
    0x1d, 0xc5, 0x01, 0x3e, 0x0c, 0xe8, 0x69, 0xbc, 0x23, 0x6e, 0x28, 0xbd, 0x8b,
    0x35, 0x0c, 0x3e, 0x57, 0x63, 0x1c, 0x3d, 0x00, 0x00, 0x0e, 0x00, 0x14, 0x00,
    0x04, 0x00, 0x00, 0x00, 0x08, 0x00, 0x0c, 0x00, 0x10, 0x00, 0x0e, 0x00, 0x00,
    0x00, 0x10, 0x00, 0x00, 0x00, 0x02, 0x00, 0x00, 0x00, 0x10, 0x00, 0x00, 0x00,
    0x60, 0x00, 0x00, 0x00, 0x01, 0x00, 0x00, 0x00, 0x0a, 0x00, 0x00, 0x00, 0x4f,
    0x00, 0x00, 0x00, 0x66, 0x75, 0x6e, 0x63, 0x74, 0x69, 0x6f, 0x6e, 0x61, 0x6c,
    0x5f, 0x32, 0x31, 0x2f, 0x66, 0x75, 0x6e, 0x63, 0x74, 0x69, 0x6f, 0x6e, 0x61,
    0x6c, 0x5f, 0x37, 0x2f, 0x62, 0x61, 0x73, 0x65, 0x5f, 0x6d, 0x6f, 0x64, 0x65,
    0x6c, 0x32, 0x2f, 0x63, 0x6f, 0x6e, 0x76, 0x32, 0x64, 0x5f, 0x32, 0x2f, 0x42,
    0x69, 0x61, 0x73, 0x41, 0x64, 0x64, 0x2f, 0x52, 0x65, 0x61, 0x64, 0x56, 0x61,
    0x72, 0x69, 0x61, 0x62, 0x6c, 0x65, 0x4f, 0x70, 0x2f, 0x72, 0x65, 0x73, 0x6f,
    0x75, 0x72, 0x63, 0x65, 0x00, 0x98, 0xff, 0xff, 0xff, 0x14, 0x00, 0x18, 0x00,
    0x04, 0x00, 0x00, 0x00, 0x08, 0x00, 0x0c, 0x00, 0x10, 0x00, 0x00, 0x00, 0x00,
    0x00, 0x14, 0x00, 0x14, 0x00, 0x00, 0x00, 0x14, 0x00, 0x00, 0x00, 0x01, 0x00,
    0x00, 0x00, 0x34, 0x00, 0x00, 0x00, 0x3c, 0x00, 0x00, 0x00, 0x18, 0x00, 0x00,
    0x00, 0x04, 0x00, 0x00, 0x00, 0x01, 0x00, 0x00, 0x00, 0x0e, 0x00, 0x00, 0x00,
    0x0e, 0x00, 0x00, 0x00, 0x05, 0x00, 0x00, 0x00, 0x04, 0x00, 0x00, 0x00, 0xff,
    0xff, 0xff, 0xff, 0x0e, 0x00, 0x00, 0x00, 0x0e, 0x00, 0x00, 0x00, 0x05, 0x00,
    0x00, 0x00, 0x07, 0x00, 0x00, 0x00, 0x69, 0x6e, 0x70, 0x75, 0x74, 0x5f, 0x33,
    0x00, 0xfc, 0xff, 0xff, 0xff, 0x04, 0x00, 0x04, 0x00, 0x04, 0x00, 0x00, 0x00,
};
const int mnistMulti_chunk2_len = 12220;
